/*
 * Copyright (c) 2021 Arm Limited and Contributors. All rights reserved.
 *
 * SPDX-License-Identifier: Apache-2.0
 * 
 */

#ifndef _TFLITE_MODEL_H_
#define _TFLITE_MODEL_H_
alignas(8) const unsigned char tflite_model[] = {
  0x20, 0x00, 0x00, 0x00, 0x54, 0x46, 0x4c, 0x33, 0x00, 0x00, 0x00, 0x00,
  0x14, 0x00, 0x20, 0x00, 0x1c, 0x00, 0x18, 0x00, 0x14, 0x00, 0x10, 0x00,
  0x0c, 0x00, 0x00, 0x00, 0x08, 0x00, 0x04, 0x00, 0x14, 0x00, 0x00, 0x00,
  0x1c, 0x00, 0x00, 0x00, 0x98, 0x00, 0x00, 0x00, 0xf0, 0x00, 0x00, 0x00,
  0x10, 0x16, 0x00, 0x00, 0x20, 0x16, 0x00, 0x00, 0xdc, 0x2a, 0x00, 0x00,
  0x03, 0x00, 0x00, 0x00, 0x01, 0x00, 0x00, 0x00, 0x10, 0x00, 0x00, 0x00,
  0x00, 0x00, 0x0a, 0x00, 0x10, 0x00, 0x0c, 0x00, 0x08, 0x00, 0x04, 0x00,
  0x0a, 0x00, 0x00, 0x00, 0x0c, 0x00, 0x00, 0x00, 0x1c, 0x00, 0x00, 0x00,
  0x3c, 0x00, 0x00, 0x00, 0x0f, 0x00, 0x00, 0x00, 0x73, 0x65, 0x72, 0x76,
  0x69, 0x6e, 0x67, 0x5f, 0x64, 0x65, 0x66, 0x61, 0x75, 0x6c, 0x74, 0x00,
  0x01, 0x00, 0x00, 0x00, 0x04, 0x00, 0x00, 0x00, 0x90, 0xff, 0xff, 0xff,
  0x12, 0x00, 0x00, 0x00, 0x04, 0x00, 0x00, 0x00, 0x08, 0x00, 0x00, 0x00,
  0x6f, 0x75, 0x74, 0x70, 0x75, 0x74, 0x5f, 0x30, 0x00, 0x00, 0x00, 0x00,
  0x01, 0x00, 0x00, 0x00, 0x04, 0x00, 0x00, 0x00, 0xda, 0xe9, 0xff, 0xff,
  0x04, 0x00, 0x00, 0x00, 0x0f, 0x00, 0x00, 0x00, 0x6b, 0x65, 0x72, 0x61,
  0x73, 0x5f, 0x74, 0x65, 0x6e, 0x73, 0x6f, 0x72, 0x5f, 0x34, 0x37, 0x00,
  0x02, 0x00, 0x00, 0x00, 0x34, 0x00, 0x00, 0x00, 0x04, 0x00, 0x00, 0x00,
  0xdc, 0xff, 0xff, 0xff, 0x15, 0x00, 0x00, 0x00, 0x04, 0x00, 0x00, 0x00,
  0x13, 0x00, 0x00, 0x00, 0x43, 0x4f, 0x4e, 0x56, 0x45, 0x52, 0x53, 0x49,
  0x4f, 0x4e, 0x5f, 0x4d, 0x45, 0x54, 0x41, 0x44, 0x41, 0x54, 0x41, 0x00,
  0x08, 0x00, 0x0c, 0x00, 0x08, 0x00, 0x04, 0x00, 0x08, 0x00, 0x00, 0x00,
  0x14, 0x00, 0x00, 0x00, 0x04, 0x00, 0x00, 0x00, 0x13, 0x00, 0x00, 0x00,
  0x6d, 0x69, 0x6e, 0x5f, 0x72, 0x75, 0x6e, 0x74, 0x69, 0x6d, 0x65, 0x5f,
  0x76, 0x65, 0x72, 0x73, 0x69, 0x6f, 0x6e, 0x00, 0x16, 0x00, 0x00, 0x00,
  0x1c, 0x15, 0x00, 0x00, 0x14, 0x15, 0x00, 0x00, 0xfc, 0x14, 0x00, 0x00,
  0xdc, 0x14, 0x00, 0x00, 0x4c, 0x14, 0x00, 0x00, 0xbc, 0x13, 0x00, 0x00,
  0xac, 0x10, 0x00, 0x00, 0x3c, 0x10, 0x00, 0x00, 0xac, 0x02, 0x00, 0x00,
  0x5c, 0x02, 0x00, 0x00, 0xbc, 0x01, 0x00, 0x00, 0x6c, 0x01, 0x00, 0x00,
  0xcc, 0x00, 0x00, 0x00, 0xc4, 0x00, 0x00, 0x00, 0xbc, 0x00, 0x00, 0x00,
  0xb4, 0x00, 0x00, 0x00, 0xac, 0x00, 0x00, 0x00, 0xa4, 0x00, 0x00, 0x00,
  0x9c, 0x00, 0x00, 0x00, 0x94, 0x00, 0x00, 0x00, 0x74, 0x00, 0x00, 0x00,
  0x04, 0x00, 0x00, 0x00, 0xae, 0xea, 0xff, 0xff, 0x04, 0x00, 0x00, 0x00,
  0x60, 0x00, 0x00, 0x00, 0x0c, 0x00, 0x00, 0x00, 0x08, 0x00, 0x0e, 0x00,
  0x08, 0x00, 0x04, 0x00, 0x08, 0x00, 0x00, 0x00, 0x10, 0x00, 0x00, 0x00,
  0x28, 0x00, 0x00, 0x00, 0x00, 0x00, 0x06, 0x00, 0x08, 0x00, 0x04, 0x00,
  0x06, 0x00, 0x00, 0x00, 0x04, 0x00, 0x00, 0x00, 0x01, 0x00, 0x00, 0x00,
  0xeb, 0x03, 0x00, 0x00, 0x0c, 0x00, 0x18, 0x00, 0x14, 0x00, 0x10, 0x00,
  0x0c, 0x00, 0x04, 0x00, 0x0c, 0x00, 0x00, 0x00, 0xd0, 0x26, 0x02, 0x1e,
  0xea, 0x91, 0xf9, 0x48, 0x02, 0x00, 0x00, 0x00, 0x02, 0x00, 0x00, 0x00,
  0x04, 0x00, 0x00, 0x00, 0x06, 0x00, 0x00, 0x00, 0x32, 0x2e, 0x32, 0x30,
  0x2e, 0x30, 0x00, 0x00, 0x1a, 0xeb, 0xff, 0xff, 0x04, 0x00, 0x00, 0x00,
  0x10, 0x00, 0x00, 0x00, 0x31, 0x2e, 0x31, 0x34, 0x2e, 0x30, 0x00, 0x00,
  0x00, 0x00, 0x00, 0x00, 0x00, 0x00, 0x00, 0x00, 0xc4, 0xd7, 0xff, 0xff,
  0xc8, 0xd7, 0xff, 0xff, 0xcc, 0xd7, 0xff, 0xff, 0xd0, 0xd7, 0xff, 0xff,
  0xd4, 0xd7, 0xff, 0xff, 0xd8, 0xd7, 0xff, 0xff, 0xdc, 0xd7, 0xff, 0xff,
  0x52, 0xeb, 0xff, 0xff, 0x04, 0x00, 0x00, 0x00, 0x90, 0x00, 0x00, 0x00,
  0xe9, 0x14, 0x2a, 0x81, 0x0a, 0x03, 0xea, 0x41, 0x59, 0xab, 0xfa, 0x86,
  0x98, 0x8d, 0x81, 0xfd, 0x9b, 0x87, 0xe3, 0x0a, 0x6b, 0x2c, 0x6f, 0x7f,
  0xce, 0xac, 0xe9, 0x46, 0x2e, 0x7e, 0x7f, 0x44, 0x5e, 0x21, 0x3c, 0x27,
  0xf6, 0x81, 0x15, 0x3b, 0x95, 0x02, 0x95, 0x2d, 0xd5, 0xa9, 0xbe, 0x62,
  0x97, 0xe3, 0x5e, 0x81, 0xcf, 0x44, 0x74, 0x7f, 0x55, 0x09, 0x45, 0x14,
  0x7c, 0x4c, 0x7e, 0x2a, 0x4d, 0x6a, 0x7f, 0x11, 0xed, 0xdf, 0xb7, 0x67,
  0x3c, 0x02, 0x66, 0x3e, 0x49, 0x61, 0x64, 0x63, 0x7f, 0xb9, 0x81, 0x27,
  0x9a, 0xb9, 0x15, 0x9c, 0x9e, 0x01, 0x4d, 0xa2, 0x19, 0x1c, 0x0f, 0x7f,
  0x7f, 0xaa, 0x43, 0xf4, 0x67, 0x57, 0xe5, 0x5f, 0x68, 0xea, 0x7f, 0x54,
  0x49, 0x3a, 0x69, 0x4d, 0x1d, 0xf4, 0x38, 0x7f, 0x53, 0x33, 0x5c, 0xe5,
  0x16, 0x7f, 0x3d, 0xd5, 0x74, 0x5e, 0x86, 0x13, 0x6b, 0x81, 0x23, 0x62,
  0x9b, 0x20, 0x7b, 0xdb, 0xb9, 0x86, 0x81, 0xd6, 0x06, 0xe8, 0x1f, 0xcf,
  0xee, 0xeb, 0xff, 0xff, 0x04, 0x00, 0x00, 0x00, 0x40, 0x00, 0x00, 0x00,
  0x76, 0xfb, 0xff, 0xff, 0x01, 0x07, 0x00, 0x00, 0xd5, 0x0f, 0x00, 0x00,
  0x52, 0xfb, 0xff, 0xff, 0xd5, 0x01, 0x00, 0x00, 0x64, 0xfe, 0xff, 0xff,
  0x7a, 0xfc, 0xff, 0xff, 0x0d, 0xfe, 0xff, 0xff, 0x80, 0xfe, 0xff, 0xff,
  0x89, 0x04, 0x00, 0x00, 0x39, 0xfa, 0xff, 0xff, 0x54, 0xfd, 0xff, 0xff,
  0xcc, 0xf9, 0xff, 0xff, 0x9e, 0x00, 0x00, 0x00, 0x8a, 0xff, 0xff, 0xff,
  0x67, 0x05, 0x00, 0x00, 0x3a, 0xec, 0xff, 0xff, 0x04, 0x00, 0x00, 0x00,
  0x90, 0x00, 0x00, 0x00, 0xc3, 0x58, 0x32, 0xe5, 0xc9, 0x2e, 0xf5, 0xf2,
  0x18, 0x42, 0x7a, 0x3e, 0x40, 0xf9, 0x22, 0x31, 0xde, 0x7f, 0x4a, 0x7f,
  0xac, 0x61, 0x3e, 0xfa, 0x3c, 0x06, 0x7a, 0xbe, 0x19, 0x54, 0x65, 0x70,
  0xe3, 0x5c, 0xe0, 0x22, 0x81, 0x03, 0x4e, 0x09, 0x79, 0x81, 0x6c, 0x2a,
  0x7e, 0xbc, 0x10, 0x52, 0xf9, 0xe4, 0x81, 0x74, 0xb9, 0x1e, 0x5b, 0x37,
  0x0e, 0x5a, 0x58, 0x7f, 0xfa, 0x9d, 0x7f, 0x5c, 0x81, 0x48, 0x8e, 0x47,
  0x9f, 0x13, 0x23, 0x7f, 0x64, 0x16, 0x7f, 0xe0, 0xfa, 0xa3, 0x08, 0x60,
  0x24, 0x23, 0xc0, 0x5b, 0xee, 0x6f, 0x7f, 0x6c, 0x7f, 0x93, 0x3e, 0x4e,
  0xf3, 0x7f, 0x20, 0x6b, 0xfc, 0xeb, 0x3a, 0xde, 0xb9, 0x77, 0x13, 0xf4,
  0x12, 0x34, 0x7b, 0x75, 0x7f, 0x26, 0x6e, 0x7f, 0xa3, 0x6e, 0x13, 0x1b,
  0xaf, 0x7f, 0x42, 0x1d, 0x3d, 0x03, 0x38, 0xeb, 0x2c, 0xef, 0x35, 0x01,
  0xf8, 0x1a, 0x47, 0xe9, 0xc6, 0x42, 0xd7, 0x7c, 0x70, 0xaa, 0xff, 0x65,
  0x40, 0x81, 0x0e, 0x1d, 0xd6, 0xec, 0xff, 0xff, 0x04, 0x00, 0x00, 0x00,
  0x40, 0x00, 0x00, 0x00, 0x0b, 0x08, 0x00, 0x00, 0x11, 0x05, 0x00, 0x00,
  0x9c, 0x02, 0x00, 0x00, 0x76, 0xfc, 0xff, 0xff, 0xdb, 0x02, 0x00, 0x00,
  0x4f, 0xff, 0xff, 0xff, 0x0b, 0xfc, 0xff, 0xff, 0xdb, 0xfe, 0xff, 0xff,
  0x14, 0xfd, 0xff, 0xff, 0xfa, 0xff, 0xff, 0xff, 0xdb, 0xfc, 0xff, 0xff,
  0x78, 0xfd, 0xff, 0xff, 0xad, 0xfb, 0xff, 0xff, 0x08, 0x08, 0x00, 0x00,
  0x9b, 0xff, 0xff, 0xff, 0x7a, 0x04, 0x00, 0x00, 0x22, 0xed, 0xff, 0xff,
  0x04, 0x00, 0x00, 0x00, 0x80, 0x0d, 0x00, 0x00, 0xc0, 0xc9, 0x11, 0x31,
  0xf3, 0xdc, 0x24, 0xfe, 0xfa, 0xaf, 0x3b, 0xf2, 0x30, 0xb9, 0x12, 0xef,
  0xe3, 0xc4, 0xe8, 0x46, 0xf6, 0xe6, 0x06, 0x1c, 0x45, 0xab, 0x36, 0xf0,
  0x18, 0xe2, 0xf4, 0xd7, 0xcb, 0xd9, 0xe2, 0x03, 0x36, 0xb2, 0x41, 0x24,
  0x04, 0x9f, 0x3a, 0xee, 0x3b, 0xb0, 0xfc, 0x10, 0xb8, 0xe2, 0xff, 0x35,
  0x0e, 0xc0, 0x47, 0x12, 0x31, 0x81, 0x1d, 0x21, 0x19, 0xc3, 0xc8, 0xdc,
  0xad, 0x00, 0x0e, 0xf9, 0xf2, 0xf8, 0x05, 0x13, 0x27, 0xa7, 0x0e, 0x31,
  0x0a, 0xca, 0x19, 0xd4, 0xe2, 0xeb, 0x0c, 0x47, 0x2f, 0xd4, 0x07, 0x15,
  0x21, 0x97, 0x4c, 0x20, 0x1e, 0xe6, 0xff, 0x0e, 0xd0, 0xee, 0xf8, 0x49,
  0x28, 0xc3, 0x13, 0x2b, 0x23, 0x81, 0x49, 0x25, 0x05, 0xc8, 0xc7, 0xdb,
  0xf3, 0xce, 0xd9, 0xff, 0x09, 0xe8, 0x18, 0x25, 0x1c, 0xad, 0x4a, 0xea,
  0x23, 0xde, 0x16, 0x07, 0xd3, 0x16, 0x10, 0x3f, 0x38, 0xaf, 0x41, 0x2a,
  0x39, 0xaa, 0x1b, 0x1f, 0x48, 0xbe, 0x0e, 0x12, 0xcb, 0xc3, 0xe1, 0x2f,
  0x02, 0xdb, 0x21, 0x0f, 0x00, 0x98, 0xf4, 0x1f, 0x1b, 0xaf, 0xd9, 0xeb,
  0xcb, 0x02, 0xe0, 0x23, 0x0c, 0xf4, 0x45, 0x19, 0x24, 0xb6, 0x12, 0x0b,
  0x1d, 0xcb, 0xfa, 0xc8, 0xde, 0xe3, 0xfc, 0x21, 0x1e, 0xcf, 0x25, 0x2e,
  0x21, 0xd0, 0x28, 0x10, 0x40, 0xd8, 0xf5, 0xeb, 0xcb, 0xe3, 0xf3, 0x16,
  0x1c, 0xaa, 0x10, 0xfe, 0x2f, 0xac, 0x28, 0x22, 0x2e, 0xa4, 0xe1, 0xb9,
  0xed, 0x0e, 0xe0, 0x25, 0x1e, 0xca, 0x0e, 0x1d, 0x19, 0xad, 0x31, 0x1b,
  0x34, 0xd2, 0xff, 0xf5, 0xdb, 0x2a, 0xe4, 0x1c, 0x30, 0xd2, 0x28, 0x27,
  0x0b, 0x9a, 0x1c, 0x0d, 0x3a, 0xca, 0xf9, 0xf8, 0xe5, 0xc9, 0x08, 0x26,
  0x2a, 0xd4, 0x31, 0x08, 0x31, 0x81, 0x16, 0xf3, 0x26, 0xe7, 0xd2, 0xb2,
  0xc5, 0xe6, 0x09, 0x14, 0x07, 0xa5, 0x25, 0x31, 0x08, 0x8a, 0x1f, 0x05,
  0x33, 0xbb, 0xef, 0xd2, 0xf2, 0x02, 0xd3, 0x35, 0x26, 0xd0, 0x45, 0xec,
  0x24, 0xaa, 0x13, 0x14, 0x38, 0xd7, 0x14, 0x14, 0xec, 0x15, 0x94, 0x01,
  0x2c, 0x49, 0xe4, 0x18, 0xf9, 0x78, 0xdd, 0xfe, 0x0f, 0xb4, 0x51, 0xf3,
  0x01, 0x15, 0x9f, 0xda, 0x00, 0x10, 0x1d, 0xe5, 0xe3, 0x74, 0xac, 0x33,
  0xea, 0xe8, 0x44, 0xe1, 0xfe, 0xf8, 0xd0, 0x04, 0xed, 0x25, 0xf6, 0x1b,
  0x26, 0x40, 0xa6, 0xfd, 0x19, 0xdc, 0x3e, 0x16, 0x22, 0x28, 0x9e, 0xe8,
  0x19, 0x32, 0xf5, 0xe3, 0x09, 0x7f, 0xb8, 0x2a, 0xf0, 0xf1, 0x22, 0xf6,
  0x0e, 0x20, 0x99, 0x04, 0xfc, 0x32, 0x13, 0xdf, 0x02, 0x59, 0xcc, 0x04,
  0x23, 0xcd, 0x2f, 0xce, 0x07, 0x0a, 0xa5, 0x05, 0x33, 0x1a, 0xe5, 0xfe,
  0x2e, 0x66, 0x9f, 0x18, 0x12, 0xf8, 0x35, 0xf1, 0x2a, 0xfe, 0xa6, 0x0a,
  0x0f, 0x4a, 0x30, 0xf3, 0x01, 0x4d, 0xa3, 0x3a, 0x2a, 0xb3, 0x17, 0xf3,
  0xec, 0x1f, 0x98, 0xda, 0x3a, 0x11, 0xec, 0xe5, 0xfe, 0x6d, 0xbb, 0x0c,
  0x0e, 0xd4, 0x1a, 0x10, 0x1c, 0x02, 0xd9, 0xcf, 0x1f, 0x28, 0x0b, 0xe1,
  0xf5, 0x55, 0xdc, 0x2a, 0xed, 0xf3, 0x03, 0xe1, 0xfe, 0x12, 0x70, 0xf5,
  0xcd, 0x1a, 0xf4, 0x0d, 0xf1, 0xde, 0x1b, 0xf4, 0xd3, 0x60, 0x22, 0x3d,
  0x24, 0x2a, 0x67, 0x24, 0xce, 0xee, 0xf9, 0x02, 0xee, 0x05, 0x3f, 0x8d,
  0xde, 0x4f, 0xff, 0x4a, 0x1b, 0x0d, 0x4e, 0x10, 0xd6, 0xdb, 0xf9, 0x28,
  0xe7, 0xee, 0x3d, 0xdf, 0xee, 0x34, 0x0e, 0x4e, 0x28, 0x3b, 0x53, 0x17,
  0xed, 0xf3, 0xd0, 0x33, 0xfd, 0xdc, 0x5f, 0xbd, 0x11, 0x3c, 0x02, 0x18,
  0xfc, 0x3c, 0x3e, 0x1c, 0xce, 0xd9, 0xf1, 0x13, 0x17, 0xea, 0x6e, 0x9b,
  0x11, 0x66, 0xf7, 0x47, 0x18, 0x11, 0x47, 0xed, 0xf7, 0xee, 0xf8, 0x1d,
  0xd9, 0xe7, 0x6e, 0xa7, 0x13, 0x3a, 0xcd, 0x3c, 0x02, 0x3a, 0x6b, 0xe7,
  0x0e, 0xf5, 0x23, 0x3d, 0x2c, 0x0d, 0x41, 0x17, 0xfc, 0x7f, 0x06, 0x1c,
  0x3a, 0xf1, 0x3c, 0x27, 0xff, 0xd6, 0xf1, 0xfb, 0x30, 0x02, 0x5a, 0xd5,
  0x2f, 0x66, 0x05, 0x11, 0x2a, 0x08, 0x7b, 0xe5, 0xe1, 0xc0, 0xd8, 0x1e,
  0xe7, 0xfb, 0x6f, 0xea, 0xe8, 0x4b, 0xf8, 0x4a, 0xed, 0xe0, 0xd4, 0xf3,
  0xff, 0x11, 0xeb, 0xf0, 0xf7, 0x43, 0x85, 0xed, 0xc6, 0xc1, 0x30, 0xe1,
  0xc1, 0x08, 0xc6, 0xe5, 0xef, 0x0e, 0x0a, 0xea, 0xe8, 0x3d, 0xa7, 0x1a,
  0xe7, 0xc8, 0x31, 0x03, 0xf4, 0x25, 0xc2, 0xec, 0x04, 0x06, 0xfe, 0xeb,
  0xec, 0x43, 0xb1, 0x20, 0x2a, 0xcf, 0x29, 0xf1, 0xf0, 0xd9, 0xd6, 0xde,
  0xf0, 0x0d, 0xfc, 0xf1, 0xe9, 0x4e, 0x9c, 0x08, 0xc5, 0xbb, 0x23, 0xe5,
  0xc4, 0x0f, 0xd1, 0xfa, 0xe8, 0x1c, 0xf2, 0xe3, 0xf9, 0x35, 0xbc, 0x08,
  0x08, 0xe3, 0x40, 0xf4, 0x20, 0x32, 0xc9, 0xdf, 0x0a, 0x23, 0xff, 0xfe,
  0x0c, 0x20, 0xe0, 0x16, 0x26, 0xbd, 0x1a, 0xf3, 0xf5, 0xfe, 0xef, 0x00,
  0x06, 0x14, 0x01, 0xf4, 0xe9, 0x48, 0x81, 0x00, 0xda, 0xde, 0x3e, 0xf2,
  0xdd, 0xf9, 0xe4, 0x0b, 0x01, 0x0f, 0xf4, 0xfe, 0xea, 0x42, 0xb0, 0x19,
  0xe3, 0xd7, 0x3c, 0x05, 0x0a, 0x42, 0xd0, 0xff, 0x03, 0x1f, 0x0a, 0xf5,
  0x0b, 0x52, 0xb7, 0x1a, 0x18, 0xc6, 0x27, 0xf2, 0x26, 0xf0, 0x1c, 0xe9,
  0x04, 0x08, 0xe9, 0xf4, 0xf4, 0x71, 0xc0, 0x0a, 0x0a, 0xc9, 0x12, 0xc4,
  0x35, 0x12, 0xf4, 0xdc, 0xd7, 0x26, 0xdd, 0x2c, 0x2e, 0x30, 0xd2, 0x00,
  0x07, 0xcf, 0x2f, 0xe5, 0x44, 0x0f, 0xe0, 0x1d, 0xf0, 0x35, 0x03, 0xf4,
  0xf2, 0x21, 0xe5, 0x09, 0x34, 0xb9, 0x51, 0xf0, 0x15, 0xf0, 0xdf, 0xdc,
  0xf0, 0x41, 0xf1, 0x1a, 0x16, 0x7f, 0xb2, 0x3f, 0x06, 0xd6, 0x1e, 0xfe,
  0x0c, 0xda, 0x18, 0xee, 0xf3, 0x2b, 0x17, 0xeb, 0xdf, 0x66, 0xcd, 0x46,
  0x12, 0x02, 0x2d, 0xc3, 0x29, 0xf8, 0x38, 0x23, 0xdf, 0x20, 0x05, 0x10,
  0x0d, 0x59, 0xf5, 0xfb, 0x2a, 0xc5, 0xfe, 0xfc, 0x01, 0x01, 0xe8, 0x22,
  0xe0, 0x21, 0xf7, 0x2c, 0xf3, 0x74, 0xd8, 0x32, 0xdd, 0xad, 0xfb, 0xf6,
  0x23, 0xcb, 0xe3, 0x0f, 0xdc, 0x18, 0x15, 0xdf, 0xdc, 0x38, 0xfb, 0x23,
  0xed, 0xda, 0x28, 0xda, 0xf2, 0x01, 0x1e, 0x07, 0x2d, 0x3d, 0x30, 0x36,
  0x37, 0x4b, 0xd2, 0x41, 0x24, 0xe6, 0x1c, 0x01, 0xf3, 0xf8, 0x0f, 0x2a,
  0x03, 0xc8, 0x34, 0x20, 0xf7, 0x9e, 0x1f, 0x08, 0x2a, 0xe0, 0xd1, 0xc6,
  0xe0, 0xd9, 0x3c, 0xfe, 0x0f, 0xfa, 0x2c, 0x23, 0xfd, 0xa1, 0x50, 0x03,
  0x25, 0xd8, 0xfb, 0xd6, 0xea, 0xf5, 0x25, 0x12, 0x1c, 0xf6, 0x3b, 0x19,
  0x20, 0xaf, 0x35, 0x33, 0x0b, 0xfb, 0xf4, 0xf8, 0xc5, 0xe9, 0x24, 0xf9,
  0xe9, 0xdb, 0x31, 0x1b, 0x0f, 0x81, 0x32, 0x20, 0x22, 0x0f, 0xe5, 0xfd,
  0xc0, 0xe3, 0x22, 0x0c, 0xfb, 0xfe, 0x1b, 0x10, 0x30, 0xa1, 0x4a, 0x27,
  0x48, 0x0e, 0x03, 0x10, 0xc4, 0xf0, 0x3a, 0x3c, 0x06, 0xec, 0x13, 0x1b,
  0x38, 0xc6, 0x55, 0x09, 0x14, 0x1c, 0xfc, 0x11, 0xbc, 0xe2, 0xf7, 0xfb,
  0x1f, 0xde, 0xf6, 0x01, 0x10, 0x86, 0x3d, 0x17, 0x31, 0xf5, 0xe9, 0xcf,
  0xc8, 0x0e, 0x22, 0xf7, 0x1a, 0xf0, 0x06, 0x11, 0x34, 0xc2, 0x58, 0x0e,
  0x21, 0xdf, 0x15, 0x08, 0xc5, 0x07, 0x27, 0x4b, 0x28, 0x0e, 0x05, 0x31,
  0xfb, 0xcc, 0x43, 0x38, 0x09, 0xeb, 0x08, 0xed, 0x4c, 0xed, 0xc2, 0x0a,
  0x21, 0x41, 0xfd, 0x06, 0x24, 0x4a, 0xf0, 0x49, 0xdc, 0xf9, 0x39, 0xc0,
  0x3c, 0xd3, 0xec, 0xed, 0xe0, 0x09, 0x08, 0x14, 0x1a, 0x74, 0xbd, 0x39,
  0x06, 0xb8, 0x4a, 0xf0, 0x37, 0x19, 0xdf, 0x05, 0x32, 0x22, 0xf8, 0x16,
  0x2c, 0x68, 0x03, 0x1e, 0x0b, 0xdf, 0x30, 0x08, 0x26, 0xd7, 0xee, 0xfc,
  0xdf, 0xfc, 0xe3, 0x09, 0x30, 0x7f, 0xab, 0x40, 0xe0, 0xcc, 0x47, 0x00,
  0x2d, 0xe9, 0xda, 0x31, 0xe8, 0x42, 0x05, 0xea, 0x0d, 0x44, 0xdf, 0x3a,
  0xef, 0x08, 0x29, 0x00, 0x22, 0x0d, 0xca, 0xf2, 0x02, 0x45, 0x37, 0xf1,
  0x30, 0x5f, 0xd6, 0x23, 0x1f, 0xeb, 0x26, 0xf9, 0x09, 0xff, 0xc2, 0x2b,
  0x0a, 0x41, 0x03, 0xde, 0x07, 0x55, 0xc5, 0x22, 0x1b, 0xcc, 0x1a, 0xc7,
  0x26, 0x1d, 0x03, 0xfb, 0xe7, 0xfb, 0xe2, 0xed, 0xfb, 0x4a, 0xe1, 0x4d,
  0xf8, 0x01, 0x07, 0x02, 0x00, 0x03, 0xe3, 0x03, 0xe5, 0x34, 0x15, 0xf5,
  0x29, 0x35, 0xbe, 0x20, 0x17, 0xb8, 0xf9, 0xcc, 0x36, 0x17, 0xca, 0x0d,
  0xc6, 0x34, 0xf8, 0xff, 0xe0, 0x5c, 0xb7, 0x2d, 0xe5, 0x9b, 0x14, 0xd0,
  0x04, 0xe2, 0xfe, 0xea, 0xc6, 0x54, 0xf8, 0x13, 0x1d, 0x3a, 0xe3, 0x2e,
  0xfa, 0xd5, 0x07, 0xcb, 0xf6, 0xe9, 0xc4, 0x22, 0x02, 0xee, 0xc6, 0xec,
  0x2f, 0x74, 0x04, 0x29, 0x1b, 0xc4, 0x16, 0xbd, 0x2a, 0x23, 0xdf, 0xf3,
  0xc4, 0x5a, 0xf3, 0x01, 0xd4, 0x47, 0xa0, 0x0d, 0x0d, 0xc2, 0x46, 0xe4,
  0xf6, 0xfc, 0xd6, 0x0d, 0xc1, 0x06, 0xd0, 0xd8, 0xc0, 0x2d, 0xc0, 0xe9,
  0x0a, 0xc8, 0xef, 0x0d, 0xd0, 0xf8, 0xc6, 0xe5, 0xf9, 0x0c, 0xea, 0x09,
  0x18, 0x45, 0x0b, 0x16, 0xd6, 0xfc, 0x47, 0x1e, 0x3f, 0x30, 0xe0, 0xc7,
  0xe0, 0x57, 0x1a, 0x26, 0xde, 0x7f, 0xba, 0x0b, 0x1a, 0xa1, 0x0b, 0x16,
  0x21, 0xd7, 0xd1, 0xbc, 0xb7, 0x2f, 0x07, 0x1c, 0x0f, 0x6a, 0xd8, 0x1d,
  0x02, 0xf8, 0xe9, 0xe4, 0xd8, 0xef, 0xec, 0xeb, 0xed, 0x4c, 0xc7, 0xf9,
  0x25, 0x48, 0xe1, 0xcd, 0xd1, 0xe8, 0x2a, 0xf0, 0x11, 0x2c, 0x33, 0xd3,
  0xd5, 0x24, 0xf4, 0x27, 0xf4, 0x00, 0x57, 0xa3, 0xd2, 0x56, 0xea, 0x2f,
  0x0f, 0x1c, 0x40, 0x13, 0xe9, 0x13, 0xea, 0x14, 0x00, 0xe2, 0x5d, 0xd3,
  0xca, 0x35, 0x0f, 0x0d, 0x21, 0x1f, 0x46, 0x32, 0x1e, 0xea, 0xf1, 0x01,
  0xfc, 0xdd, 0x7f, 0xd4, 0x06, 0x28, 0x0b, 0x1e, 0x15, 0x21, 0x44, 0xd7,
  0xfb, 0x02, 0xd6, 0x1f, 0x0d, 0xea, 0x50, 0xc6, 0xf1, 0x4d, 0xf2, 0x22,
  0x29, 0x22, 0x3c, 0x21, 0xfa, 0x08, 0xef, 0x0f, 0xf8, 0x00, 0x6d, 0xae,
  0xc1, 0x3e, 0x01, 0x26, 0x13, 0x1c, 0x4b, 0x1c, 0x0d, 0x05, 0x01, 0x01,
  0x00, 0xce, 0x5a, 0xc6, 0xf0, 0x35, 0xf2, 0x2a, 0x1f, 0x12, 0x46, 0xf5,
  0xee, 0x04, 0xeb, 0x22, 0x05, 0xe9, 0x68, 0xb1, 0xd1, 0x50, 0x05, 0x3e,
  0x0a, 0x0f, 0x2c, 0x02, 0x0b, 0xf4, 0xec, 0x29, 0xfa, 0xf1, 0x64, 0xbf,
  0xc4, 0x2e, 0x18, 0x21, 0x17, 0x2f, 0x2d, 0x0c, 0x19, 0x01, 0xf1, 0xfe,
  0xe1, 0xfc, 0x50, 0xc9, 0xdd, 0x2b, 0x08, 0x2e, 0xe4, 0x0b, 0x4b, 0xfc,
  0xf9, 0x05, 0x28, 0x3f, 0x19, 0x81, 0x60, 0x02, 0x03, 0x1b, 0x00, 0xc4,
  0xdf, 0xc2, 0x30, 0x0a, 0x10, 0x39, 0x2b, 0x42, 0x2c, 0x98, 0x3f, 0x25,
  0x00, 0xf2, 0x06, 0x10, 0x02, 0x08, 0x22, 0x37, 0xdc, 0x0d, 0x31, 0x34,
  0x16, 0xab, 0x3e, 0xff, 0xf7, 0x30, 0x1f, 0x1b, 0xea, 0x03, 0x35, 0x38,
  0xea, 0x0e, 0xff, 0x24, 0xfe, 0x8a, 0x54, 0x39, 0x0b, 0x10, 0x08, 0xf1,
  0xd1, 0xc8, 0x43, 0x39, 0xf2, 0x1c, 0x15, 0x46, 0x37, 0x94, 0x58, 0x25,
  0x33, 0x09, 0x04, 0x11, 0xe9, 0xef, 0x37, 0x3a, 0xe3, 0x37, 0x32, 0x3e,
  0x20, 0xbf, 0x40, 0x1c, 0x2f, 0x02, 0xf8, 0xf4, 0xbc, 0x0a, 0x14, 0x1b,
  0xdf, 0xfc, 0x12, 0xf1, 0x2c, 0x86, 0x59, 0x18, 0x0e, 0x0a, 0x1d, 0x17,
  0xe0, 0x05, 0x24, 0x03, 0xf6, 0x30, 0xed, 0x46, 0xf6, 0xb4, 0x77, 0x0e,
  0x2d, 0x40, 0x04, 0xd8, 0x08, 0xcf, 0x0d, 0x41, 0xd6, 0x40, 0x04, 0x2e,
  0x1f, 0xa9, 0x53, 0x2a, 0x33, 0x28, 0x33, 0xdc, 0xdc, 0xc2, 0x01, 0x09,
  0x1f, 0xd6, 0x2f, 0x17, 0x0b, 0x81, 0x01, 0xf1, 0x2a, 0xbd, 0xd8, 0xce,
  0xbb, 0xd6, 0xf5, 0x15, 0x06, 0xfd, 0x13, 0x13, 0x3a, 0xc7, 0x08, 0x1a,
  0x37, 0xde, 0x0e, 0xe6, 0xe8, 0xd2, 0xe8, 0x24, 0x21, 0xd2, 0x38, 0x20,
  0x2e, 0xac, 0x41, 0x00, 0x3f, 0xd3, 0xfb, 0xf3, 0xe1, 0xe6, 0xf9, 0x26,
  0x07, 0xcc, 0x12, 0xf1, 0x25, 0xa9, 0x27, 0x12, 0x29, 0xe9, 0xf1, 0xe2,
  0xbd, 0xfa, 0xe2, 0x2c, 0x21, 0xdd, 0x27, 0x05, 0x00, 0xb6, 0x3a, 0xfc,
  0x16, 0xef, 0x10, 0xfc, 0xfc, 0xf0, 0xff, 0x32, 0x05, 0xd6, 0x09, 0x0b,
  0xfe, 0xce, 0x26, 0x0c, 0x1f, 0xea, 0x1d, 0x0a, 0xc7, 0xc0, 0x07, 0x0b,
  0xfa, 0xd1, 0x19, 0xfc, 0x34, 0x95, 0x0b, 0xff, 0x35, 0xea, 0xd8, 0xdc,
  0xec, 0x0b, 0xf9, 0x10, 0x1f, 0xbb, 0x13, 0xfb, 0x27, 0x94, 0x29, 0x30,
  0x17, 0xe9, 0xf0, 0xe6, 0xe6, 0xfe, 0xf4, 0x14, 0x26, 0xdd, 0x28, 0x22,
  0x33, 0xc8, 0x08, 0x08, 0x29, 0xd1, 0xfa, 0xdc, 0x07, 0x57, 0x66, 0x28,
  0x0f, 0xf8, 0xec, 0x19, 0x2e, 0xc1, 0x2b, 0xde, 0xe1, 0x6a, 0x07, 0x60,
  0x23, 0x55, 0x58, 0x08, 0x18, 0x08, 0x04, 0x42, 0x26, 0xc5, 0x49, 0x19,
  0x06, 0x46, 0xf5, 0x53, 0x09, 0x01, 0x67, 0xeb, 0xe7, 0xf9, 0xe3, 0x31,
  0x1d, 0x04, 0x35, 0x25, 0xe4, 0x3c, 0x22, 0x53, 0x02, 0x41, 0x2f, 0x18,
  0xd3, 0x16, 0xef, 0x1c, 0x12, 0xde, 0x4d, 0xf5, 0xee, 0x4b, 0x2a, 0x43,
  0x4e, 0x3b, 0x4d, 0x33, 0x01, 0x3d, 0xe8, 0x1b, 0xee, 0xef, 0x31, 0xeb,
  0x20, 0x51, 0xee, 0x2b, 0x33, 0x50, 0x47, 0x39, 0xe8, 0x11, 0xeb, 0x21,
  0xe5, 0xd1, 0x3d, 0xea, 0xe4, 0x37, 0x25, 0x3c, 0x07, 0x23, 0x41, 0xf1,
  0xed, 0xf1, 0xde, 0x41, 0x24, 0xf8, 0x3c, 0xfd, 0xeb, 0x79, 0xdb, 0x45,
  0x33, 0x0d, 0x50, 0xf8, 0xef, 0x3e, 0x17, 0x3e, 0xed, 0x0c, 0x3b, 0x0f,
  0x08, 0x7f, 0x1a, 0x42, 0x33, 0x3f, 0x3f, 0x16, 0xe9, 0x2e, 0xdb, 0x26,
  0x18, 0xe9, 0x26, 0xf2, 0xdc, 0x7c, 0xf8, 0x3d, 0xdc, 0xc7, 0x18, 0x1c,
  0x38, 0xe1, 0x36, 0x0b, 0x2e, 0x81, 0x22, 0x06, 0x30, 0x9c, 0xbf, 0xd1,
  0xb7, 0xf5, 0x11, 0x3a, 0xfd, 0xdc, 0x3c, 0x37, 0x21, 0xb7, 0x14, 0x30,
  0x52, 0xf2, 0xf8, 0xcb, 0xad, 0xc9, 0x16, 0x40, 0x09, 0xe7, 0x3a, 0x3e,
  0x2e, 0xb7, 0x3c, 0xf2, 0x2e, 0xfb, 0xfe, 0x11, 0xb1, 0xd5, 0x09, 0x39,
  0x18, 0xb9, 0x35, 0x36, 0x41, 0x81, 0x32, 0x03, 0x4f, 0xd9, 0xfd, 0xae,
  0xd1, 0xee, 0x11, 0x1a, 0x23, 0xcc, 0x25, 0xf9, 0x19, 0xc5, 0x28, 0xfe,
  0x42, 0xe4, 0xfd, 0xbb, 0xeb, 0xed, 0xea, 0x0c, 0x1c, 0xfa, 0x42, 0xee,
  0x13, 0xd6, 0x3c, 0x2e, 0x1a, 0xc6, 0xfd, 0xe1, 0xdc, 0xad, 0xd8, 0x46,
  0x0f, 0x94, 0x03, 0x08, 0x0d, 0x91, 0x50, 0xf8, 0x08, 0xdb, 0xc6, 0xe9,
  0xbc, 0xe1, 0xf6, 0x1b, 0x29, 0xbf, 0x2d, 0x3d, 0x21, 0xa5, 0x38, 0x12,
  0x17, 0xac, 0xe3, 0xce, 0xb0, 0x21, 0x0b, 0x43, 0x38, 0xda, 0x1d, 0x28,
  0x1e, 0x90, 0x4a, 0x08, 0x1f, 0xd3, 0xec, 0xe0, 0x5d, 0xcb, 0x48, 0x13,
  0xfc, 0x11, 0x29, 0xf8, 0x23, 0x36, 0xd2, 0x33, 0x04, 0x28, 0x48, 0x13,
  0x4c, 0x22, 0x23, 0x35, 0x09, 0xf0, 0xbf, 0x34, 0xd9, 0x19, 0xf4, 0xeb,
  0xd0, 0xd7, 0x04, 0xfe, 0xf7, 0xd3, 0x08, 0x19, 0xe0, 0x2e, 0x3a, 0x0a,
  0x12, 0x00, 0xf1, 0xfe, 0xf2, 0xed, 0x0c, 0xe4, 0x4b, 0x29, 0x35, 0xd9,
  0x12, 0xfa, 0xbb, 0x1c, 0xdb, 0x7d, 0xac, 0xe3, 0xc3, 0xd4, 0x4e, 0xe4,
  0x32, 0xfe, 0xe6, 0xf2, 0xd6, 0x1d, 0xc2, 0x05, 0xea, 0x0c, 0xc4, 0x0b,
  0xd4, 0xe4, 0x19, 0x07, 0x52, 0x16, 0x0b, 0x1f, 0x19, 0x0c, 0x18, 0x40,
  0x3b, 0x36, 0x1f, 0x18, 0xfd, 0xe8, 0x1e, 0xfa, 0x61, 0x1e, 0x01, 0xf0,
  0xe5, 0x23, 0xea, 0x42, 0xf0, 0x7f, 0xe2, 0x21, 0x1c, 0x07, 0x59, 0xdf,
  0x19, 0xfa, 0xdb, 0x24, 0xd8, 0x3f, 0xcf, 0xf1, 0x17, 0x2c, 0xee, 0x35,
  0x18, 0xe9, 0x29, 0x05, 0xf6, 0xe3, 0xfa, 0x43, 0x0c, 0x46, 0xf1, 0x3e,
  0xfb, 0x22, 0xc9, 0xe7, 0x10, 0x37, 0x3e, 0x0f, 0xc9, 0xdd, 0x19, 0xc1,
  0xc1, 0xeb, 0xd0, 0xd5, 0x15, 0xfc, 0x2d, 0xf3, 0xbb, 0x1c, 0x0c, 0xe2,
  0x2f, 0xe3, 0x13, 0xc1, 0xf2, 0xd7, 0x1b, 0x3e, 0x29, 0x49, 0x05, 0x26,
  0xd0, 0x11, 0x1a, 0x15, 0x1a, 0x0b, 0x7f, 0xde, 0xf4, 0x2e, 0x35, 0x3f,
  0x2b, 0x23, 0x56, 0x20, 0x02, 0xe9, 0x21, 0x02, 0x0f, 0xf6, 0x5e, 0xf4,
  0xc2, 0x0b, 0xdc, 0xeb, 0xbe, 0x51, 0x3d, 0x21, 0xdd, 0x1e, 0x2f, 0x0d,
  0xfa, 0x06, 0x43, 0x0e, 0x00, 0xf0, 0xb2, 0x3b, 0xb8, 0xd3, 0x27, 0xfe,
  0xd5, 0x14, 0x43, 0xcf, 0x3b, 0x00, 0x54, 0xe4, 0xc8, 0x23, 0x00, 0x15,
  0xdb, 0xca, 0x2c, 0x2d, 0xc7, 0xe2, 0xed, 0xfb, 0x3b, 0x30, 0x2b, 0xfc,
  0xfa, 0x0a, 0xf7, 0x01, 0x20, 0xee, 0x16, 0xf0, 0xc6, 0xde, 0xe8, 0x1c,
  0x06, 0x06, 0x20, 0xec, 0xcb, 0x11, 0xba, 0x15, 0xf6, 0x0c, 0xe3, 0xdb,
  0x02, 0xfc, 0x05, 0x32, 0xee, 0xfb, 0x0b, 0xff, 0xd8, 0xe6, 0xd3, 0x0b,
  0x1e, 0x08, 0xcb, 0x1d, 0xb1, 0x0f, 0x3d, 0x11, 0xfb, 0x08, 0x2d, 0x1d,
  0x0d, 0x6c, 0x02, 0x2e, 0x24, 0x57, 0xea, 0xee, 0x24, 0x10, 0x2c, 0x47,
  0x44, 0x2a, 0x2f, 0xf1, 0xed, 0x48, 0xd9, 0x23, 0xea, 0x28, 0x09, 0xe7,
  0xfe, 0x02, 0x5f, 0xe5, 0x25, 0x34, 0xf4, 0x28, 0x22, 0x2f, 0x18, 0xf7,
  0x34, 0x4a, 0x35, 0x49, 0x31, 0x36, 0x0b, 0x3c, 0x36, 0xfa, 0x0b, 0x04,
  0xcc, 0x16, 0xfc, 0x27, 0x1b, 0x43, 0xb6, 0x2c, 0x1e, 0x5d, 0x2c, 0x1e,
  0x69, 0x07, 0x04, 0xd3, 0x35, 0x24, 0xca, 0x16, 0xf9, 0x7f, 0xe1, 0x25,
  0x07, 0x33, 0x0e, 0x34, 0x1a, 0x00, 0xe0, 0xf1, 0xed, 0x31, 0xd2, 0xfb,
  0xef, 0x1b, 0x2a, 0x3e, 0xdf, 0x21, 0x01, 0xe1, 0xfd, 0x26, 0xd6, 0xd6,
  0x15, 0x5d, 0x0b, 0xd6, 0x13, 0x4a, 0xeb, 0xf7, 0xca, 0x36, 0xfc, 0xf1,
  0xfd, 0x0b, 0xed, 0x1f, 0xfe, 0x40, 0x17, 0xfa, 0xd8, 0x26, 0xce, 0x42,
  0xe9, 0x18, 0x44, 0x04, 0x5c, 0x01, 0x2d, 0x0a, 0xfa, 0x50, 0x00, 0x0a,
  0x49, 0x42, 0xc9, 0xf4, 0x2f, 0x0d, 0x26, 0x38, 0xfa, 0x1b, 0xbe, 0xfa,
  0xc6, 0x39, 0x00, 0xd9, 0xe1, 0x74, 0x8a, 0xff, 0xd3, 0xe2, 0x46, 0xdb,
  0x17, 0x18, 0xda, 0xd2, 0x07, 0x1d, 0xe8, 0xce, 0xfd, 0x7f, 0x9e, 0x06,
  0xe4, 0xc5, 0x45, 0xdb, 0x01, 0xfb, 0xdf, 0xec, 0xf9, 0x3c, 0xfd, 0xfd,
  0x08, 0x7c, 0xb2, 0x0c, 0x01, 0xe9, 0x4c, 0xf6, 0xff, 0xf1, 0xb9, 0xe7,
  0xd3, 0x48, 0xf8, 0xce, 0xe5, 0x58, 0x8f, 0x26, 0xd2, 0xd9, 0x3b, 0x03,
  0xfc, 0xf1, 0xc4, 0x13, 0xec, 0x39, 0xfd, 0xda, 0xf5, 0x76, 0xcd, 0x18,
  0x06, 0xf0, 0x0d, 0xde, 0x01, 0x2d, 0xb5, 0xed, 0xfb, 0x0a, 0x1a, 0x0a,
  0xee, 0x68, 0xba, 0xf6, 0xfb, 0xcd, 0x30, 0x18, 0xef, 0x03, 0xf3, 0xdb,
  0xd8, 0x13, 0x13, 0xd6, 0xe9, 0x4a, 0x93, 0x14, 0xe7, 0xb0, 0x19, 0xf2,
  0x05, 0xf4, 0xee, 0x19, 0xfc, 0x32, 0xde, 0xfa, 0x19, 0x44, 0x91, 0x28,
  0xe3, 0xdf, 0x1e, 0xe1, 0x19, 0x02, 0xca, 0x00, 0xec, 0x48, 0xfb, 0xe2,
  0x04, 0x77, 0xcc, 0x2b, 0xfd, 0xb1, 0x36, 0x0c, 0x14, 0x24, 0x4d, 0xec,
  0xb3, 0x32, 0xc6, 0x2d, 0xdf, 0xe8, 0x51, 0x95, 0xd7, 0x52, 0xe6, 0x34,
  0x27, 0x0c, 0x21, 0x12, 0xf5, 0x16, 0xf4, 0x34, 0xf9, 0xdf, 0x62, 0xbc,
  0xb9, 0x4c, 0x22, 0x44, 0x1c, 0x35, 0x34, 0x3d, 0x29, 0x1b, 0xed, 0x23,
  0x08, 0xd0, 0x60, 0xa9, 0xdd, 0x68, 0x00, 0x43, 0x43, 0x24, 0x54, 0xd4,
  0xb0, 0xfe, 0xd2, 0x1c, 0xe1, 0xdb, 0x5a, 0xa6, 0xcd, 0x6c, 0x05, 0x27,
  0x31, 0x16, 0x3b, 0xf9, 0xca, 0x1a, 0xc8, 0x14, 0xec, 0xf4, 0x6d, 0xaa,
  0xaf, 0x50, 0x19, 0x41, 0x2f, 0x34, 0x60, 0x25, 0xef, 0x03, 0xe6, 0x10,
  0xd9, 0xd3, 0x7e, 0xa9, 0xea, 0x5b, 0x0c, 0x1d, 0x17, 0x33, 0x52, 0xdd,
  0xbc, 0xf9, 0xb6, 0x33, 0xdf, 0x0a, 0x7f, 0xc8, 0xf7, 0x58, 0x00, 0x49,
  0x29, 0x1f, 0x40, 0xe5, 0xdc, 0xf0, 0xa5, 0x33, 0x0c, 0x09, 0x63, 0xad,
  0xbf, 0x50, 0x01, 0x4b, 0x1d, 0x40, 0x65, 0xe1, 0x01, 0xe8, 0xb9, 0xfe,
  0xef, 0xdc, 0x46, 0xdb, 0xbb, 0x66, 0xfd, 0x21, 0x18, 0xf3, 0xcb, 0xe5,
  0xe2, 0x1b, 0xf3, 0x06, 0xdf, 0x6a, 0x81, 0x08, 0xf8, 0xca, 0x3e, 0xf7,
  0xff, 0xfa, 0xc9, 0xd4, 0xe3, 0x13, 0xec, 0xd9, 0xf6, 0x40, 0xa9, 0x24,
  0xd9, 0xdd, 0x42, 0xf7, 0x37, 0x11, 0xbc, 0x01, 0xdd, 0x24, 0xe9, 0x05,
  0x0c, 0x68, 0xbb, 0xf1, 0xfd, 0xf1, 0x14, 0x1b, 0xeb, 0xea, 0xcf, 0xe5,
  0xfa, 0x2e, 0x13, 0xe7, 0xed, 0x72, 0x9e, 0x04, 0xf7, 0xd9, 0x47, 0xe6,
  0xf9, 0x37, 0xc9, 0xf8, 0xf2, 0x10, 0xe1, 0xe8, 0xee, 0x58, 0xc3, 0x33,
  0x01, 0xe7, 0x4c, 0xee, 0x28, 0x18, 0xc6, 0xec, 0x0e, 0x2e, 0xef, 0xf2,
  0xf3, 0x28, 0xd3, 0x2f, 0x10, 0xe5, 0x12, 0xf7, 0xfb, 0xe2, 0xc5, 0xda,
  0x17, 0x16, 0xec, 0xf8, 0xfe, 0x64, 0xb4, 0x1c, 0xdc, 0xe9, 0x26, 0xee,
  0xf1, 0x11, 0xc7, 0xd8, 0xf2, 0x08, 0xfc, 0xd6, 0x07, 0x45, 0xc1, 0x24,
  0xed, 0xbc, 0x2e, 0xfd, 0x34, 0x14, 0xb5, 0x19, 0xf3, 0x19, 0x18, 0xfd,
  0x01, 0x70, 0xb5, 0x10, 0x1c, 0xe4, 0x24, 0xe4, 0x1e, 0x18, 0xdd, 0xe4,
  0xbb, 0x2d, 0x07, 0xea, 0xdc, 0x4c, 0xdd, 0xf7, 0xf7, 0xde, 0x2f, 0xe1,
  0x04, 0xe4, 0xcc, 0xcd, 0xec, 0x33, 0xfe, 0xfa, 0xec, 0x4e, 0xbc, 0x09,
  0xe7, 0xf2, 0x0b, 0x09, 0xe7, 0xde, 0xb5, 0xd0, 0xf3, 0x41, 0xf7, 0x06,
  0x14, 0x77, 0xce, 0x0c, 0xe2, 0xe9, 0x21, 0xf1, 0x25, 0xe9, 0xc6, 0xdc,
  0xd3, 0x2b, 0xd8, 0xd8, 0x05, 0x4b, 0xb1, 0x15, 0xfb, 0xca, 0x09, 0xfe,
  0x0d, 0x08, 0xeb, 0xce, 0xf2, 0x1b, 0x10, 0x0b, 0xd9, 0x79, 0x8a, 0xfd,
  0xf5, 0xf5, 0x38, 0xe2, 0xce, 0x1d, 0xce, 0x0e, 0xfc, 0x38, 0x13, 0x00,
  0x1a, 0x4b, 0xe7, 0x19, 0x18, 0xe2, 0x41, 0x01, 0x1b, 0x0b, 0xed, 0xf5,
  0xd3, 0x20, 0xec, 0xee, 0xe0, 0x7f, 0xa7, 0x1d, 0x17, 0xd3, 0x3f, 0xed,
  0x21, 0x08, 0xd8, 0xdf, 0xd3, 0x40, 0xf7, 0xde, 0xf6, 0x4c, 0x93, 0x2f,
  0xd6, 0xb1, 0x2f, 0x09, 0xe0, 0xe5, 0xd2, 0xe9, 0xf8, 0x34, 0x0b, 0x05,
  0xec, 0x4f, 0xd1, 0x0f, 0xe3, 0xc5, 0x4a, 0xe9, 0xf8, 0xc2, 0x40, 0x0b,
  0x11, 0xe0, 0x2c, 0x14, 0xff, 0xa3, 0x19, 0x3a, 0x05, 0xda, 0xd0, 0xc4,
  0xd6, 0xc8, 0x26, 0x03, 0x08, 0xe4, 0x37, 0x00, 0x20, 0xa0, 0x5c, 0x2b,
  0x44, 0xd5, 0xf0, 0x14, 0xe3, 0xf0, 0x07, 0x34, 0x22, 0xdb, 0x14, 0xfb,
  0x2c, 0xb7, 0x55, 0x29, 0x42, 0xe9, 0xf2, 0xe5, 0xe1, 0xee, 0x06, 0xfe,
  0x12, 0xee, 0xfa, 0x25, 0x11, 0x81, 0x16, 0x31, 0x31, 0xfa, 0xd8, 0xd9,
  0xf7, 0x02, 0x0e, 0x37, 0x2d, 0xeb, 0x1d, 0x0c, 0x26, 0x9c, 0x2d, 0x0e,
  0x3e, 0xef, 0xe3, 0xe9, 0xee, 0xf1, 0x0e, 0x26, 0xfa, 0x0b, 0x22, 0x27,
  0x2f, 0xbc, 0x43, 0x18, 0x44, 0xff, 0x07, 0xf9, 0xdb, 0xd7, 0x1d, 0x07,
  0x2f, 0xda, 0x08, 0x18, 0x1d, 0x95, 0x19, 0x30, 0x05, 0xd8, 0x0b, 0xe6,
  0xd2, 0xd1, 0x3b, 0x3f, 0x19, 0x12, 0xff, 0x30, 0x0b, 0xc1, 0x59, 0x2a,
  0x35, 0xde, 0x00, 0x10, 0xfb, 0xd6, 0x33, 0x3c, 0x30, 0x0c, 0x1f, 0x07,
  0x18, 0xdc, 0x6f, 0xfe, 0x2f, 0xf2, 0xe9, 0x1e, 0xd9, 0xd8, 0x04, 0x00,
  0x1b, 0xcd, 0x1a, 0x15, 0x2c, 0x81, 0x3d, 0xf2, 0x0a, 0xcd, 0xcc, 0xeb,
  0xe6, 0xf7, 0x1a, 0x24, 0x0d, 0xde, 0x22, 0x00, 0x11, 0xbd, 0x28, 0x29,
  0x1c, 0xd7, 0xee, 0xfd, 0xc7, 0xcb, 0x1c, 0x1b, 0x0e, 0xed, 0x3b, 0xfc,
  0x28, 0xb5, 0x30, 0x0f, 0x17, 0xf8, 0x0c, 0xf1, 0xc1, 0xe6, 0x15, 0x03,
  0xf6, 0xcc, 0x0d, 0x19, 0x2d, 0x84, 0x0e, 0xf3, 0x09, 0xe1, 0xf9, 0xf7,
  0xdd, 0xff, 0x04, 0x0c, 0x03, 0xea, 0x03, 0x1c, 0x25, 0xbd, 0x2a, 0x06,
  0x0e, 0xd6, 0x03, 0xe4, 0xde, 0xec, 0xf9, 0x3e, 0xf7, 0xf6, 0x01, 0x1b,
  0x04, 0xde, 0x24, 0x19, 0x0f, 0x01, 0x06, 0xf8, 0xc9, 0xf8, 0xf8, 0xfc,
  0xff, 0xe0, 0x03, 0xfa, 0x08, 0x8d, 0x16, 0x21, 0x24, 0xdb, 0xd7, 0xe0,
  0xba, 0xe0, 0xed, 0x2c, 0xf7, 0xe5, 0x1f, 0x30, 0x11, 0xb0, 0x2f, 0x29,
  0x31, 0xf2, 0x16, 0xf6, 0xd4, 0xed, 0x24, 0x0d, 0x2b, 0xf7, 0x33, 0x04,
  0xfe, 0xd9, 0x23, 0x25, 0x0f, 0x09, 0x16, 0xf6, 0x2f, 0x14, 0xf2, 0xab,
  0xa2, 0x35, 0x01, 0xc8, 0xcf, 0x54, 0xa5, 0x32, 0x06, 0xe3, 0xf3, 0xf5,
  0x09, 0xf8, 0xca, 0xe6, 0xe8, 0x34, 0xec, 0x07, 0xce, 0x68, 0x95, 0x24,
  0x05, 0xc8, 0x45, 0x0c, 0xe4, 0x00, 0xd4, 0x08, 0xe5, 0x3e, 0x0d, 0xfe,
  0xf0, 0x4d, 0xd0, 0x21, 0xfa, 0xad, 0x50, 0xf3, 0x26, 0x0f, 0xea, 0xf2,
  0xa2, 0x2b, 0xd8, 0xc6, 0xf4, 0x3b, 0xdb, 0x0d, 0xe9, 0xca, 0xec, 0x07,
  0xfb, 0x08, 0xd0, 0xf1, 0xe0, 0x1e, 0x09, 0xf0, 0xd4, 0x35, 0x81, 0x12,
  0xf0, 0xcf, 0x28, 0xdd, 0xcf, 0xe5, 0xe2, 0xdb, 0x29, 0x23, 0x2a, 0xe4,
  0x1b, 0x42, 0x96, 0x03, 0xf8, 0xa4, 0x49, 0xf1, 0x19, 0xef, 0xef, 0xc6,
  0xa8, 0x25, 0x06, 0xff, 0xfb, 0x3b, 0xd4, 0xf7, 0x0e, 0xe0, 0xe7, 0x00,
  0x25, 0x06, 0xe3, 0x04, 0x12, 0x4a, 0xf1, 0x11, 0xe4, 0x74, 0xc3, 0xff,
  0x08, 0xdc, 0x14, 0xf9, 0xb0, 0xd0, 0xea, 0xfe, 0x0f, 0x2d, 0x11, 0xf1,
  0x2a, 0x76, 0x9c, 0x1c, 0x14, 0xa1, 0x13, 0xfb, 0xae, 0xfa, 0xff, 0xff,
  0x04, 0x00, 0x00, 0x00, 0x60, 0x00, 0x00, 0x00, 0xef, 0xfe, 0xff, 0xff,
  0x6f, 0xff, 0xff, 0xff, 0xf5, 0xff, 0xff, 0xff, 0x1a, 0x03, 0x00, 0x00,
  0x7c, 0xff, 0xff, 0xff, 0x01, 0x00, 0x00, 0x00, 0xdc, 0xfe, 0xff, 0xff,
  0x22, 0x00, 0x00, 0x00, 0x91, 0xfe, 0xff, 0xff, 0xb6, 0x02, 0x00, 0x00,
  0x13, 0xff, 0xff, 0xff, 0x5d, 0xff, 0xff, 0xff, 0xff, 0x02, 0x00, 0x00,
  0x07, 0xff, 0xff, 0xff, 0x3a, 0x01, 0x00, 0x00, 0xca, 0x00, 0x00, 0x00,
  0x17, 0x02, 0x00, 0x00, 0x2b, 0xff, 0xff, 0xff, 0x2d, 0x04, 0x00, 0x00,
  0xbf, 0xff, 0xff, 0xff, 0xb8, 0xfe, 0xff, 0xff, 0x58, 0xff, 0xff, 0xff,
  0x38, 0xff, 0xff, 0xff, 0xa4, 0xfe, 0xff, 0xff, 0x1a, 0xfb, 0xff, 0xff,
  0x04, 0x00, 0x00, 0x00, 0x00, 0x03, 0x00, 0x00, 0xe7, 0x9c, 0x9b, 0x16,
  0x4d, 0x99, 0x61, 0xd2, 0x2e, 0x1e, 0x4b, 0x29, 0x81, 0x27, 0x3a, 0xfa,
  0x8c, 0xbb, 0xd7, 0xb4, 0xd9, 0x1e, 0xcc, 0x53, 0xc6, 0xed, 0x1c, 0x1e,
  0x67, 0x5e, 0xb5, 0x4f, 0xe7, 0xb7, 0x5b, 0xf2, 0xdf, 0x2c, 0xe6, 0xfc,
  0x49, 0x97, 0xc0, 0x81, 0x84, 0xd7, 0xf7, 0x8a, 0x4d, 0xf1, 0x0b, 0xac,
  0xa2, 0x18, 0x52, 0xad, 0x0c, 0xb3, 0x2a, 0xfc, 0x81, 0x8c, 0xcd, 0x95,
  0x0c, 0x46, 0x45, 0x95, 0x0b, 0x4b, 0x4d, 0xb0, 0x84, 0x4c, 0x12, 0x07,
  0x81, 0xd0, 0xbd, 0xf7, 0x9a, 0x8c, 0x82, 0x0b, 0xa7, 0x54, 0x0b, 0xcc,
  0xb3, 0x43, 0xc4, 0x67, 0x64, 0xdc, 0x2a, 0xed, 0xba, 0xf4, 0xd6, 0x09,
  0x55, 0xc7, 0xff, 0xb9, 0xd3, 0x25, 0xda, 0x17, 0x3d, 0x81, 0xb1, 0xed,
  0x1b, 0x33, 0xf2, 0x05, 0x48, 0xd8, 0xa7, 0x27, 0xd9, 0x43, 0x4f, 0xbd,
  0x7f, 0xeb, 0xd9, 0x0b, 0x25, 0xbb, 0xd8, 0x3d, 0xe2, 0x13, 0x29, 0x14,
  0x42, 0x7b, 0xc9, 0x7e, 0x6a, 0xad, 0xcd, 0x13, 0x4b, 0x2f, 0xff, 0xf1,
  0xe3, 0x9f, 0x6d, 0xbc, 0x03, 0x13, 0x3f, 0x4d, 0x26, 0x22, 0xec, 0x3e,
  0x22, 0xcc, 0x7f, 0xe3, 0xaf, 0xec, 0x6e, 0x84, 0xa3, 0x9d, 0x3d, 0x5c,
  0x5c, 0xac, 0xad, 0xd3, 0x1b, 0x64, 0x44, 0x67, 0x0f, 0x85, 0x09, 0x2d,
  0x81, 0x9c, 0xf5, 0x2f, 0x90, 0x0b, 0x01, 0x8a, 0xe4, 0x9c, 0xa7, 0x78,
  0x0b, 0xf4, 0x8b, 0x5e, 0x81, 0x3b, 0xbe, 0xa0, 0xcf, 0xb2, 0xea, 0x40,
  0xf6, 0xb3, 0x51, 0xf0, 0x96, 0x2d, 0x74, 0xb5, 0xb7, 0xa3, 0xe6, 0xc8,
  0xca, 0x07, 0x5f, 0xa3, 0x50, 0x31, 0xf0, 0xf9, 0xeb, 0x81, 0xed, 0x0f,
  0xd8, 0x10, 0x91, 0x2f, 0x71, 0x5a, 0x4a, 0x9f, 0xc1, 0xf5, 0xbd, 0x1b,
  0xd3, 0x93, 0x07, 0xf0, 0xad, 0x4e, 0x36, 0xf9, 0xc3, 0x50, 0xf9, 0xaf,
  0xe5, 0x14, 0xc6, 0x81, 0xa6, 0xd6, 0xc5, 0xf8, 0x30, 0x4e, 0x1f, 0x0e,
  0x8d, 0xbe, 0x16, 0xe6, 0xef, 0x33, 0xe0, 0x6b, 0x27, 0x6d, 0xc7, 0xd2,
  0x16, 0xb3, 0x7f, 0xd3, 0xaf, 0x45, 0x4c, 0xcf, 0x3f, 0x38, 0x20, 0x1b,
  0x4d, 0x21, 0xf4, 0xc0, 0x0f, 0x3b, 0xc5, 0x17, 0x50, 0x40, 0x06, 0xd0,
  0x13, 0x24, 0x05, 0x7f, 0x2e, 0x05, 0xc9, 0x31, 0x16, 0x2b, 0xd9, 0xb1,
  0xdd, 0x31, 0x7f, 0x07, 0x34, 0xc9, 0x0d, 0x6f, 0xbe, 0x5e, 0xab, 0xbd,
  0xbb, 0x43, 0x68, 0xec, 0x08, 0x6a, 0x17, 0xf9, 0xef, 0x18, 0x0d, 0x54,
  0x81, 0xc6, 0x2b, 0xfc, 0x16, 0x06, 0x33, 0x35, 0x28, 0xeb, 0x12, 0xcf,
  0xf9, 0xc2, 0x41, 0x01, 0xc6, 0x5f, 0xee, 0xa9, 0x3d, 0x0a, 0xba, 0xa7,
  0xe1, 0x34, 0x2b, 0x4b, 0xd4, 0x42, 0x26, 0x81, 0x4f, 0x08, 0x2c, 0xa2,
  0x27, 0x1a, 0x38, 0x4c, 0x2d, 0x20, 0xa0, 0x1c, 0x1c, 0x2d, 0xe8, 0x6f,
  0x81, 0x03, 0x5f, 0xaf, 0xad, 0x4c, 0x30, 0xd2, 0x3b, 0x3e, 0x10, 0x02,
  0x24, 0xbe, 0x35, 0xac, 0xb8, 0x37, 0x2a, 0xcf, 0x6c, 0x98, 0xf0, 0x8f,
  0x75, 0xb3, 0xf8, 0x63, 0x37, 0xff, 0x8e, 0xbf, 0xa4, 0x30, 0x3d, 0x2f,
  0xb9, 0xe0, 0x0b, 0xf5, 0x8b, 0xbb, 0xb3, 0x81, 0xfe, 0x40, 0xf6, 0xf4,
  0x3d, 0xe4, 0x0c, 0x53, 0xf3, 0x9d, 0xb1, 0xc9, 0x0a, 0xc1, 0xde, 0xe9,
  0x34, 0x4f, 0xeb, 0x5d, 0x58, 0x3e, 0xd6, 0x7f, 0x68, 0x09, 0xfc, 0x93,
  0x81, 0x95, 0x41, 0x0b, 0xba, 0xb8, 0xe5, 0xb2, 0x69, 0xae, 0x8d, 0x85,
  0xce, 0x2e, 0x42, 0x4b, 0x9b, 0x4a, 0xc2, 0x63, 0x03, 0xc4, 0x50, 0xb4,
  0x7f, 0x32, 0xbc, 0x59, 0x21, 0x96, 0xec, 0xdd, 0x26, 0xc7, 0x28, 0x42,
  0x4e, 0x6f, 0xc1, 0x4b, 0x1f, 0xca, 0xd2, 0x2b, 0x51, 0x54, 0xc1, 0xe4,
  0x18, 0xab, 0x7f, 0x22, 0xb2, 0x0d, 0x46, 0xfe, 0xde, 0x3f, 0xd0, 0x28,
  0x06, 0xe2, 0xda, 0x02, 0x39, 0x25, 0x2c, 0x24, 0x38, 0x1c, 0xc5, 0x46,
  0xe5, 0x1d, 0x98, 0xad, 0xe6, 0xa1, 0x4e, 0x0d, 0x14, 0x91, 0xfb, 0x95,
  0xf7, 0xbb, 0xe2, 0x70, 0x27, 0x67, 0x81, 0xa8, 0x26, 0x38, 0xfa, 0x3b,
  0x81, 0xbb, 0x53, 0xac, 0xab, 0x49, 0x3a, 0x42, 0x26, 0x46, 0x14, 0x0f,
  0x28, 0xdf, 0x65, 0xd7, 0xb3, 0x00, 0x5d, 0x9d, 0x81, 0xc7, 0x87, 0xbc,
  0xe5, 0xea, 0x8f, 0x97, 0x6a, 0x8f, 0x7a, 0x57, 0xfd, 0x65, 0xda, 0xfd,
  0x09, 0x87, 0x18, 0xfb, 0x8b, 0x5a, 0xa9, 0x26, 0x0b, 0xe5, 0x89, 0x18,
  0x10, 0xec, 0x0b, 0xee, 0x66, 0x84, 0x6f, 0x97, 0x8e, 0xba, 0x0a, 0x63,
  0xbf, 0xb6, 0x29, 0xd6, 0x7f, 0x7f, 0x9a, 0x13, 0xbb, 0x4a, 0x68, 0x10,
  0x4b, 0x23, 0x2e, 0x22, 0x3b, 0xeb, 0x7e, 0x2b, 0x17, 0xdd, 0x2c, 0x81,
  0x46, 0x04, 0xdf, 0x67, 0x06, 0x83, 0xdc, 0xb1, 0x69, 0x81, 0x99, 0xea,
  0xca, 0xdc, 0xd6, 0x9e, 0xdd, 0x5b, 0xaf, 0x49, 0xb2, 0x29, 0x3b, 0xa6,
  0x50, 0xc4, 0x9f, 0x39, 0x51, 0xf1, 0x23, 0x8a, 0x6c, 0x7b, 0x13, 0xcc,
  0x0a, 0x29, 0x4b, 0x1f, 0xb7, 0x01, 0x7c, 0x7f, 0xe8, 0x5d, 0xd7, 0xd8,
  0xa3, 0xe0, 0xbf, 0x8f, 0x9a, 0x3d, 0x2a, 0xb7, 0x17, 0x50, 0x8f, 0xcf,
  0x9f, 0x7f, 0x29, 0xc6, 0x76, 0x27, 0x07, 0xa4, 0xe4, 0xc8, 0xcd, 0xdf,
  0xc9, 0x1d, 0x10, 0xf1, 0x1b, 0x7a, 0xd2, 0x38, 0x19, 0xec, 0xc1, 0x08,
  0x81, 0x03, 0x1c, 0x19, 0xf4, 0x64, 0x02, 0x3d, 0x3f, 0x0d, 0xdf, 0x37,
  0x18, 0xae, 0x6f, 0xba, 0x98, 0x57, 0x3e, 0x93, 0x12, 0x61, 0x16, 0x8d,
  0xc0, 0x00, 0x28, 0x43, 0x81, 0x2e, 0xad, 0x85, 0xa3, 0x86, 0x06, 0x11,
  0xaa, 0x0f, 0xa0, 0x51, 0x51, 0x00, 0x85, 0xc4, 0x26, 0xfe, 0xff, 0xff,
  0x04, 0x00, 0x00, 0x00, 0x80, 0x00, 0x00, 0x00, 0x00, 0x00, 0x00, 0x00,
  0x98, 0xff, 0xff, 0xff, 0x58, 0xfe, 0xff, 0xff, 0x23, 0xff, 0xff, 0xff,
  0xa7, 0xfe, 0xff, 0xff, 0xdc, 0xfe, 0xff, 0xff, 0x39, 0x00, 0x00, 0x00,
  0x06, 0x00, 0x00, 0x00, 0x76, 0xfe, 0xff, 0xff, 0x00, 0x00, 0x00, 0x00,
  0x00, 0x00, 0x00, 0x00, 0x30, 0x01, 0x00, 0x00, 0xbf, 0xfe, 0xff, 0xff,
  0x15, 0xfe, 0xff, 0xff, 0x6e, 0x03, 0x00, 0x00, 0xfa, 0x00, 0x00, 0x00,
  0xa7, 0x02, 0x00, 0x00, 0x00, 0x00, 0x00, 0x00, 0x0c, 0x00, 0x00, 0x00,
  0x67, 0xff, 0xff, 0xff, 0xfa, 0x00, 0x00, 0x00, 0xc1, 0xfe, 0xff, 0xff,
  0x95, 0xff, 0xff, 0xff, 0xd5, 0x01, 0x00, 0x00, 0x00, 0x00, 0x00, 0x00,
  0x1f, 0x00, 0x00, 0x00, 0xcb, 0x00, 0x00, 0x00, 0x04, 0xfe, 0xff, 0xff,
  0x42, 0x01, 0x00, 0x00, 0xb2, 0xff, 0xff, 0xff, 0x91, 0x02, 0x00, 0x00,
  0x00, 0x00, 0x00, 0x00, 0xb2, 0xfe, 0xff, 0xff, 0x04, 0x00, 0x00, 0x00,
  0x80, 0x00, 0x00, 0x00, 0x26, 0xe0, 0xf2, 0xf3, 0x2d, 0x28, 0xdd, 0xda,
  0xfe, 0x13, 0x13, 0x81, 0x15, 0x17, 0xa0, 0x15, 0xbb, 0x0b, 0x3a, 0x25,
  0x36, 0x24, 0xe7, 0x99, 0x20, 0x1d, 0x0e, 0x1f, 0xef, 0xe0, 0x8c, 0xdf,
  0xb6, 0x0b, 0x8b, 0xcd, 0xaa, 0x50, 0x13, 0x5a, 0xaa, 0xc9, 0x8b, 0xc0,
  0x03, 0xee, 0xc1, 0x3f, 0xe4, 0x1c, 0x34, 0x0d, 0x4c, 0xf7, 0x27, 0xd2,
  0x68, 0x0d, 0x2d, 0xe4, 0xc7, 0x35, 0x81, 0x0c, 0xc6, 0x0a, 0x1d, 0x44,
  0xc4, 0x9c, 0x33, 0xd5, 0xe7, 0x2c, 0x01, 0xe3, 0xbf, 0xd0, 0x56, 0x39,
  0x7f, 0x2a, 0x8a, 0x0f, 0xbc, 0xcd, 0xf9, 0x4b, 0xd3, 0x20, 0x09, 0xf9,
  0xac, 0xe0, 0x5e, 0x09, 0x19, 0x03, 0xe7, 0xeb, 0x3f, 0xe2, 0x39, 0xce,
  0xe0, 0xd8, 0xf3, 0x40, 0x35, 0x66, 0xf3, 0xda, 0x2f, 0xdd, 0xbd, 0x03,
  0xae, 0x69, 0xd9, 0x2c, 0x22, 0x26, 0xcf, 0xff, 0x7f, 0xe7, 0x01, 0xde,
  0x3e, 0xff, 0xff, 0xff, 0x04, 0x00, 0x00, 0x00, 0x10, 0x00, 0x00, 0x00,
  0xf1, 0xff, 0xff, 0xff, 0x9c, 0xff, 0xff, 0xff, 0xb3, 0x00, 0x00, 0x00,
  0xc8, 0xff, 0xff, 0xff, 0x5a, 0xff, 0xff, 0xff, 0x04, 0x00, 0x00, 0x00,
  0x08, 0x00, 0x00, 0x00, 0x01, 0x00, 0x00, 0x00, 0x02, 0x00, 0x00, 0x00,
  0xfc, 0xeb, 0xff, 0xff, 0x00, 0xec, 0xff, 0xff, 0x0f, 0x00, 0x00, 0x00,
  0x4d, 0x4c, 0x49, 0x52, 0x20, 0x43, 0x6f, 0x6e, 0x76, 0x65, 0x72, 0x74,
  0x65, 0x64, 0x2e, 0x00, 0x01, 0x00, 0x00, 0x00, 0x14, 0x00, 0x00, 0x00,
  0x00, 0x00, 0x0e, 0x00, 0x18, 0x00, 0x14, 0x00, 0x10, 0x00, 0x0c, 0x00,
  0x08, 0x00, 0x04, 0x00, 0x0e, 0x00, 0x00, 0x00, 0x14, 0x00, 0x00, 0x00,
  0x1c, 0x00, 0x00, 0x00, 0x0c, 0x02, 0x00, 0x00, 0x10, 0x02, 0x00, 0x00,
  0x14, 0x02, 0x00, 0x00, 0x04, 0x00, 0x00, 0x00, 0x6d, 0x61, 0x69, 0x6e,
  0x00, 0x00, 0x00, 0x00, 0x07, 0x00, 0x00, 0x00, 0xa8, 0x01, 0x00, 0x00,
  0x40, 0x01, 0x00, 0x00, 0xf0, 0x00, 0x00, 0x00, 0xbc, 0x00, 0x00, 0x00,
  0x78, 0x00, 0x00, 0x00, 0x40, 0x00, 0x00, 0x00, 0x04, 0x00, 0x00, 0x00,
  0xe6, 0xfe, 0xff, 0xff, 0x1c, 0x00, 0x00, 0x00, 0x00, 0x00, 0x00, 0x09,
  0x1c, 0x00, 0x00, 0x00, 0x20, 0x00, 0x00, 0x00, 0x04, 0x00, 0x00, 0x00,
  0x00, 0x00, 0x06, 0x00, 0x08, 0x00, 0x04, 0x00, 0x06, 0x00, 0x00, 0x00,
  0x00, 0x00, 0x80, 0x3f, 0x01, 0x00, 0x00, 0x00, 0x12, 0x00, 0x00, 0x00,
  0x01, 0x00, 0x00, 0x00, 0x11, 0x00, 0x00, 0x00, 0x1e, 0xff, 0xff, 0xff,
  0x14, 0x00, 0x00, 0x00, 0x00, 0x00, 0x00, 0x08, 0x10, 0x00, 0x00, 0x00,
  0x14, 0x00, 0x00, 0x00, 0x03, 0x00, 0x00, 0x00, 0xc4, 0xec, 0xff, 0xff,
  0x01, 0x00, 0x00, 0x00, 0x11, 0x00, 0x00, 0x00, 0x03, 0x00, 0x00, 0x00,
  0x10, 0x00, 0x00, 0x00, 0x03, 0x00, 0x00, 0x00, 0x02, 0x00, 0x00, 0x00,
  0x52, 0xff, 0xff, 0xff, 0x1c, 0x00, 0x00, 0x00, 0x00, 0x00, 0x00, 0x08,
  0x1c, 0x00, 0x00, 0x00, 0x20, 0x00, 0x00, 0x00, 0x03, 0x00, 0x00, 0x00,
  0x00, 0x00, 0x06, 0x00, 0x08, 0x00, 0x07, 0x00, 0x06, 0x00, 0x00, 0x00,
  0x00, 0x00, 0x00, 0x01, 0x01, 0x00, 0x00, 0x00, 0x10, 0x00, 0x00, 0x00,
  0x03, 0x00, 0x00, 0x00, 0x0f, 0x00, 0x00, 0x00, 0x05, 0x00, 0x00, 0x00,
  0x04, 0x00, 0x00, 0x00, 0x92, 0xff, 0xff, 0xff, 0x14, 0x00, 0x00, 0x00,
  0x00, 0x00, 0x00, 0x1b, 0x10, 0x00, 0x00, 0x00, 0x14, 0x00, 0x00, 0x00,
  0x02, 0x00, 0x00, 0x00, 0x38, 0xed, 0xff, 0xff, 0x01, 0x00, 0x00, 0x00,
  0x0f, 0x00, 0x00, 0x00, 0x02, 0x00, 0x00, 0x00, 0x0e, 0x00, 0x00, 0x00,
  0x01, 0x00, 0x00, 0x00, 0x5e, 0xff, 0xff, 0xff, 0x10, 0x00, 0x00, 0x00,
  0x00, 0x00, 0x00, 0x01, 0x18, 0x00, 0x00, 0x00, 0x1c, 0x00, 0x00, 0x00,
  0x50, 0xff, 0xff, 0xff, 0x00, 0x00, 0x00, 0x01, 0x01, 0x00, 0x00, 0x00,
  0x01, 0x00, 0x00, 0x00, 0x01, 0x00, 0x00, 0x00, 0x0e, 0x00, 0x00, 0x00,
  0x03, 0x00, 0x00, 0x00, 0x0d, 0x00, 0x00, 0x00, 0x07, 0x00, 0x00, 0x00,
  0x06, 0x00, 0x00, 0x00, 0x00, 0x00, 0x0e, 0x00, 0x1a, 0x00, 0x14, 0x00,
  0x10, 0x00, 0x0c, 0x00, 0x0b, 0x00, 0x04, 0x00, 0x0e, 0x00, 0x00, 0x00,
  0x24, 0x00, 0x00, 0x00, 0x00, 0x00, 0x00, 0x02, 0x30, 0x00, 0x00, 0x00,
  0x34, 0x00, 0x00, 0x00, 0x01, 0x00, 0x00, 0x00, 0x00, 0x00, 0x0e, 0x00,
  0x14, 0x00, 0x00, 0x00, 0x10, 0x00, 0x0c, 0x00, 0x08, 0x00, 0x07, 0x00,
  0x0e, 0x00, 0x00, 0x00, 0x00, 0x00, 0x00, 0x01, 0x01, 0x00, 0x00, 0x00,
  0x01, 0x00, 0x00, 0x00, 0x01, 0x00, 0x00, 0x00, 0x01, 0x00, 0x00, 0x00,
  0x0d, 0x00, 0x00, 0x00, 0x03, 0x00, 0x00, 0x00, 0x0c, 0x00, 0x00, 0x00,
  0x09, 0x00, 0x00, 0x00, 0x08, 0x00, 0x00, 0x00, 0x00, 0x00, 0x0e, 0x00,
  0x14, 0x00, 0x00, 0x00, 0x10, 0x00, 0x0c, 0x00, 0x0b, 0x00, 0x04, 0x00,
  0x0e, 0x00, 0x00, 0x00, 0x1c, 0x00, 0x00, 0x00, 0x00, 0x00, 0x00, 0x01,
  0x24, 0x00, 0x00, 0x00, 0x28, 0x00, 0x00, 0x00, 0x0c, 0x00, 0x10, 0x00,
  0x00, 0x00, 0x0c, 0x00, 0x08, 0x00, 0x07, 0x00, 0x0c, 0x00, 0x00, 0x00,
  0x00, 0x00, 0x00, 0x01, 0x01, 0x00, 0x00, 0x00, 0x01, 0x00, 0x00, 0x00,
  0x01, 0x00, 0x00, 0x00, 0x0c, 0x00, 0x00, 0x00, 0x03, 0x00, 0x00, 0x00,
  0x00, 0x00, 0x00, 0x00, 0x0b, 0x00, 0x00, 0x00, 0x0a, 0x00, 0x00, 0x00,
  0x01, 0x00, 0x00, 0x00, 0x12, 0x00, 0x00, 0x00, 0x01, 0x00, 0x00, 0x00,
  0x00, 0x00, 0x00, 0x00, 0x13, 0x00, 0x00, 0x00, 0xe0, 0x11, 0x00, 0x00,
  0x84, 0x11, 0x00, 0x00, 0xe4, 0x10, 0x00, 0x00, 0x58, 0x10, 0x00, 0x00,
  0x84, 0x0e, 0x00, 0x00, 0xa8, 0x0c, 0x00, 0x00, 0x34, 0x0b, 0x00, 0x00,
  0xb0, 0x09, 0x00, 0x00, 0x9c, 0x08, 0x00, 0x00, 0x60, 0x07, 0x00, 0x00,
  0x4c, 0x06, 0x00, 0x00, 0x28, 0x05, 0x00, 0x00, 0x4c, 0x04, 0x00, 0x00,
  0x58, 0x03, 0x00, 0x00, 0x7c, 0x02, 0x00, 0x00, 0xe8, 0x01, 0x00, 0x00,
  0x24, 0x01, 0x00, 0x00, 0x80, 0x00, 0x00, 0x00, 0x04, 0x00, 0x00, 0x00,
  0x82, 0xee, 0xff, 0xff, 0x00, 0x00, 0x00, 0x01, 0x18, 0x00, 0x00, 0x00,
  0x20, 0x00, 0x00, 0x00, 0x3c, 0x00, 0x00, 0x00, 0x13, 0x00, 0x00, 0x00,
  0x00, 0x00, 0x00, 0x09, 0x50, 0x00, 0x00, 0x00, 0x02, 0x00, 0x00, 0x00,
  0xff, 0xff, 0xff, 0xff, 0x04, 0x00, 0x00, 0x00, 0x64, 0xee, 0xff, 0xff,
  0x08, 0x00, 0x00, 0x00, 0x10, 0x00, 0x00, 0x00, 0x01, 0x00, 0x00, 0x00,
  0x80, 0xff, 0xff, 0xff, 0xff, 0xff, 0xff, 0xff, 0x01, 0x00, 0x00, 0x00,
  0x00, 0x00, 0x80, 0x3b, 0x1b, 0x00, 0x00, 0x00, 0x53, 0x74, 0x61, 0x74,
  0x65, 0x66, 0x75, 0x6c, 0x50, 0x61, 0x72, 0x74, 0x69, 0x74, 0x69, 0x6f,
  0x6e, 0x65, 0x64, 0x43, 0x61, 0x6c, 0x6c, 0x5f, 0x31, 0x3a, 0x30, 0x00,
  0x02, 0x00, 0x00, 0x00, 0x01, 0x00, 0x00, 0x00, 0x04, 0x00, 0x00, 0x00,
  0xfa, 0xee, 0xff, 0xff, 0x00, 0x00, 0x00, 0x01, 0x18, 0x00, 0x00, 0x00,
  0x20, 0x00, 0x00, 0x00, 0x3c, 0x00, 0x00, 0x00, 0x12, 0x00, 0x00, 0x00,
  0x00, 0x00, 0x00, 0x09, 0x78, 0x00, 0x00, 0x00, 0x02, 0x00, 0x00, 0x00,
  0xff, 0xff, 0xff, 0xff, 0x04, 0x00, 0x00, 0x00, 0xdc, 0xee, 0xff, 0xff,
  0x08, 0x00, 0x00, 0x00, 0x10, 0x00, 0x00, 0x00, 0x01, 0x00, 0x00, 0x00,
  0x1e, 0x00, 0x00, 0x00, 0x00, 0x00, 0x00, 0x00, 0x01, 0x00, 0x00, 0x00,
  0xcf, 0xee, 0xd7, 0x3d, 0x42, 0x00, 0x00, 0x00, 0x73, 0x65, 0x71, 0x75,
  0x65, 0x6e, 0x74, 0x69, 0x61, 0x6c, 0x5f, 0x37, 0x5f, 0x31, 0x2f, 0x64,
  0x65, 0x6e, 0x73, 0x65, 0x5f, 0x31, 0x33, 0x5f, 0x31, 0x2f, 0x4d, 0x61,
  0x74, 0x4d, 0x75, 0x6c, 0x3b, 0x73, 0x65, 0x71, 0x75, 0x65, 0x6e, 0x74,
  0x69, 0x61, 0x6c, 0x5f, 0x37, 0x5f, 0x31, 0x2f, 0x64, 0x65, 0x6e, 0x73,
  0x65, 0x5f, 0x31, 0x33, 0x5f, 0x31, 0x2f, 0x42, 0x69, 0x61, 0x73, 0x41,
  0x64, 0x64, 0x00, 0x00, 0x02, 0x00, 0x00, 0x00, 0x01, 0x00, 0x00, 0x00,
  0x04, 0x00, 0x00, 0x00, 0x9a, 0xef, 0xff, 0xff, 0x00, 0x00, 0x00, 0x01,
  0x18, 0x00, 0x00, 0x00, 0x20, 0x00, 0x00, 0x00, 0x3c, 0x00, 0x00, 0x00,
  0x11, 0x00, 0x00, 0x00, 0x00, 0x00, 0x00, 0x09, 0x98, 0x00, 0x00, 0x00,
  0x02, 0x00, 0x00, 0x00, 0xff, 0xff, 0xff, 0xff, 0x20, 0x00, 0x00, 0x00,
  0x7c, 0xef, 0xff, 0xff, 0x08, 0x00, 0x00, 0x00, 0x10, 0x00, 0x00, 0x00,
  0x01, 0x00, 0x00, 0x00, 0x80, 0xff, 0xff, 0xff, 0xff, 0xff, 0xff, 0xff,
  0x01, 0x00, 0x00, 0x00, 0x5a, 0x0a, 0xd4, 0x3c, 0x61, 0x00, 0x00, 0x00,
  0x73, 0x65, 0x71, 0x75, 0x65, 0x6e, 0x74, 0x69, 0x61, 0x6c, 0x5f, 0x37,
  0x5f, 0x31, 0x2f, 0x64, 0x65, 0x6e, 0x73, 0x65, 0x5f, 0x31, 0x32, 0x5f,
  0x31, 0x2f, 0x4d, 0x61, 0x74, 0x4d, 0x75, 0x6c, 0x3b, 0x73, 0x65, 0x71,
  0x75, 0x65, 0x6e, 0x74, 0x69, 0x61, 0x6c, 0x5f, 0x37, 0x5f, 0x31, 0x2f,
  0x64, 0x65, 0x6e, 0x73, 0x65, 0x5f, 0x31, 0x32, 0x5f, 0x31, 0x2f, 0x52,
  0x65, 0x6c, 0x75, 0x3b, 0x73, 0x65, 0x71, 0x75, 0x65, 0x6e, 0x74, 0x69,
  0x61, 0x6c, 0x5f, 0x37, 0x5f, 0x31, 0x2f, 0x64, 0x65, 0x6e, 0x73, 0x65,
  0x5f, 0x31, 0x32, 0x5f, 0x31, 0x2f, 0x42, 0x69, 0x61, 0x73, 0x41, 0x64,
  0x64, 0x00, 0x00, 0x00, 0x02, 0x00, 0x00, 0x00, 0x01, 0x00, 0x00, 0x00,
  0x20, 0x00, 0x00, 0x00, 0x5a, 0xf0, 0xff, 0xff, 0x00, 0x00, 0x00, 0x01,
  0x18, 0x00, 0x00, 0x00, 0x20, 0x00, 0x00, 0x00, 0x3c, 0x00, 0x00, 0x00,
  0x10, 0x00, 0x00, 0x00, 0x00, 0x00, 0x00, 0x09, 0x68, 0x00, 0x00, 0x00,
  0x02, 0x00, 0x00, 0x00, 0xff, 0xff, 0xff, 0xff, 0x18, 0x00, 0x00, 0x00,
  0x3c, 0xf0, 0xff, 0xff, 0x08, 0x00, 0x00, 0x00, 0x10, 0x00, 0x00, 0x00,
  0x01, 0x00, 0x00, 0x00, 0x80, 0xff, 0xff, 0xff, 0xff, 0xff, 0xff, 0xff,
  0x01, 0x00, 0x00, 0x00, 0xec, 0x9e, 0xb0, 0x3c, 0x30, 0x00, 0x00, 0x00,
  0x73, 0x65, 0x71, 0x75, 0x65, 0x6e, 0x74, 0x69, 0x61, 0x6c, 0x5f, 0x37,
  0x5f, 0x31, 0x2f, 0x67, 0x6c, 0x6f, 0x62, 0x61, 0x6c, 0x5f, 0x61, 0x76,
  0x65, 0x72, 0x61, 0x67, 0x65, 0x5f, 0x70, 0x6f, 0x6f, 0x6c, 0x69, 0x6e,
  0x67, 0x32, 0x64, 0x5f, 0x35, 0x5f, 0x31, 0x2f, 0x4d, 0x65, 0x61, 0x6e,
  0x00, 0x00, 0x00, 0x00, 0x02, 0x00, 0x00, 0x00, 0x01, 0x00, 0x00, 0x00,
  0x18, 0x00, 0x00, 0x00, 0xea, 0xf0, 0xff, 0xff, 0x00, 0x00, 0x00, 0x01,
  0x18, 0x00, 0x00, 0x00, 0x28, 0x00, 0x00, 0x00, 0x44, 0x00, 0x00, 0x00,
  0x0f, 0x00, 0x00, 0x00, 0x00, 0x00, 0x00, 0x09, 0xa8, 0x00, 0x00, 0x00,
  0x04, 0x00, 0x00, 0x00, 0xff, 0xff, 0xff, 0xff, 0x50, 0x00, 0x00, 0x00,
  0x20, 0x00, 0x00, 0x00, 0x18, 0x00, 0x00, 0x00, 0xd4, 0xf0, 0xff, 0xff,
  0x08, 0x00, 0x00, 0x00, 0x10, 0x00, 0x00, 0x00, 0x01, 0x00, 0x00, 0x00,
  0x80, 0xff, 0xff, 0xff, 0xff, 0xff, 0xff, 0xff, 0x01, 0x00, 0x00, 0x00,
  0xe4, 0x19, 0xed, 0x3d, 0x6a, 0x00, 0x00, 0x00, 0x73, 0x65, 0x71, 0x75,
  0x65, 0x6e, 0x74, 0x69, 0x61, 0x6c, 0x5f, 0x37, 0x5f, 0x31, 0x2f, 0x63,
  0x6f, 0x6e, 0x76, 0x32, 0x64, 0x5f, 0x31, 0x33, 0x5f, 0x31, 0x2f, 0x52,
  0x65, 0x6c, 0x75, 0x3b, 0x73, 0x65, 0x71, 0x75, 0x65, 0x6e, 0x74, 0x69,
  0x61, 0x6c, 0x5f, 0x37, 0x5f, 0x31, 0x2f, 0x63, 0x6f, 0x6e, 0x76, 0x32,
  0x64, 0x5f, 0x31, 0x33, 0x5f, 0x31, 0x2f, 0x42, 0x69, 0x61, 0x73, 0x41,
  0x64, 0x64, 0x3b, 0x73, 0x65, 0x71, 0x75, 0x65, 0x6e, 0x74, 0x69, 0x61,
  0x6c, 0x5f, 0x37, 0x5f, 0x31, 0x2f, 0x63, 0x6f, 0x6e, 0x76, 0x32, 0x64,
  0x5f, 0x31, 0x33, 0x5f, 0x31, 0x2f, 0x63, 0x6f, 0x6e, 0x76, 0x6f, 0x6c,
  0x75, 0x74, 0x69, 0x6f, 0x6e, 0x3b, 0x00, 0x00, 0x04, 0x00, 0x00, 0x00,
  0x01, 0x00, 0x00, 0x00, 0x50, 0x00, 0x00, 0x00, 0x20, 0x00, 0x00, 0x00,
  0x18, 0x00, 0x00, 0x00, 0xc2, 0xf1, 0xff, 0xff, 0x00, 0x00, 0x00, 0x01,
  0x18, 0x00, 0x00, 0x00, 0x28, 0x00, 0x00, 0x00, 0x44, 0x00, 0x00, 0x00,
  0x0e, 0x00, 0x00, 0x00, 0x00, 0x00, 0x00, 0x09, 0xc0, 0x00, 0x00, 0x00,
  0x04, 0x00, 0x00, 0x00, 0xff, 0xff, 0xff, 0xff, 0x50, 0x00, 0x00, 0x00,
  0x20, 0x00, 0x00, 0x00, 0x10, 0x00, 0x00, 0x00, 0xac, 0xf1, 0xff, 0xff,
  0x08, 0x00, 0x00, 0x00, 0x10, 0x00, 0x00, 0x00, 0x01, 0x00, 0x00, 0x00,
  0x80, 0xff, 0xff, 0xff, 0xff, 0xff, 0xff, 0xff, 0x01, 0x00, 0x00, 0x00,
  0x25, 0xb3, 0x33, 0x3d, 0x83, 0x00, 0x00, 0x00, 0x73, 0x65, 0x71, 0x75,
  0x65, 0x6e, 0x74, 0x69, 0x61, 0x6c, 0x5f, 0x37, 0x5f, 0x31, 0x2f, 0x64,
  0x65, 0x70, 0x74, 0x68, 0x77, 0x69, 0x73, 0x65, 0x5f, 0x63, 0x6f, 0x6e,
  0x76, 0x32, 0x64, 0x5f, 0x35, 0x5f, 0x31, 0x2f, 0x52, 0x65, 0x6c, 0x75,
  0x3b, 0x73, 0x65, 0x71, 0x75, 0x65, 0x6e, 0x74, 0x69, 0x61, 0x6c, 0x5f,
  0x37, 0x5f, 0x31, 0x2f, 0x64, 0x65, 0x70, 0x74, 0x68, 0x77, 0x69, 0x73,
  0x65, 0x5f, 0x63, 0x6f, 0x6e, 0x76, 0x32, 0x64, 0x5f, 0x35, 0x5f, 0x31,
  0x2f, 0x42, 0x69, 0x61, 0x73, 0x41, 0x64, 0x64, 0x3b, 0x73, 0x65, 0x71,
  0x75, 0x65, 0x6e, 0x74, 0x69, 0x61, 0x6c, 0x5f, 0x37, 0x5f, 0x31, 0x2f,
  0x64, 0x65, 0x70, 0x74, 0x68, 0x77, 0x69, 0x73, 0x65, 0x5f, 0x63, 0x6f,
  0x6e, 0x76, 0x32, 0x64, 0x5f, 0x35, 0x5f, 0x31, 0x2f, 0x64, 0x65, 0x70,
  0x74, 0x68, 0x77, 0x69, 0x73, 0x65, 0x3b, 0x00, 0x04, 0x00, 0x00, 0x00,
  0x01, 0x00, 0x00, 0x00, 0x50, 0x00, 0x00, 0x00, 0x20, 0x00, 0x00, 0x00,
  0x10, 0x00, 0x00, 0x00, 0xb2, 0xf2, 0xff, 0xff, 0x00, 0x00, 0x00, 0x01,
  0x18, 0x00, 0x00, 0x00, 0x28, 0x00, 0x00, 0x00, 0x44, 0x00, 0x00, 0x00,
  0x0d, 0x00, 0x00, 0x00, 0x00, 0x00, 0x00, 0x09, 0xa8, 0x00, 0x00, 0x00,
  0x04, 0x00, 0x00, 0x00, 0xff, 0xff, 0xff, 0xff, 0x50, 0x00, 0x00, 0x00,
  0x20, 0x00, 0x00, 0x00, 0x10, 0x00, 0x00, 0x00, 0x9c, 0xf2, 0xff, 0xff,
  0x08, 0x00, 0x00, 0x00, 0x10, 0x00, 0x00, 0x00, 0x01, 0x00, 0x00, 0x00,
  0x80, 0xff, 0xff, 0xff, 0xff, 0xff, 0xff, 0xff, 0x01, 0x00, 0x00, 0x00,
  0x74, 0x50, 0x23, 0x3d, 0x6b, 0x00, 0x00, 0x00, 0x73, 0x65, 0x71, 0x75,
  0x65, 0x6e, 0x74, 0x69, 0x61, 0x6c, 0x5f, 0x37, 0x5f, 0x31, 0x2f, 0x63,
  0x6f, 0x6e, 0x76, 0x32, 0x64, 0x5f, 0x31, 0x32, 0x5f, 0x31, 0x2f, 0x52,
  0x65, 0x6c, 0x75, 0x3b, 0x73, 0x65, 0x71, 0x75, 0x65, 0x6e, 0x74, 0x69,
  0x61, 0x6c, 0x5f, 0x37, 0x5f, 0x31, 0x2f, 0x63, 0x6f, 0x6e, 0x76, 0x32,
  0x64, 0x5f, 0x31, 0x32, 0x5f, 0x31, 0x2f, 0x42, 0x69, 0x61, 0x73, 0x41,
  0x64, 0x64, 0x3b, 0x73, 0x65, 0x71, 0x75, 0x65, 0x6e, 0x74, 0x69, 0x61,
  0x6c, 0x5f, 0x37, 0x5f, 0x31, 0x2f, 0x63, 0x6f, 0x6e, 0x76, 0x32, 0x64,
  0x5f, 0x31, 0x32, 0x5f, 0x31, 0x2f, 0x63, 0x6f, 0x6e, 0x76, 0x6f, 0x6c,
  0x75, 0x74, 0x69, 0x6f, 0x6e, 0x3b, 0x31, 0x00, 0x04, 0x00, 0x00, 0x00,
  0x01, 0x00, 0x00, 0x00, 0x50, 0x00, 0x00, 0x00, 0x20, 0x00, 0x00, 0x00,
  0x10, 0x00, 0x00, 0x00, 0xe2, 0xf3, 0xff, 0xff, 0x00, 0x00, 0x00, 0x01,
  0x14, 0x00, 0x00, 0x00, 0xe8, 0x00, 0x00, 0x00, 0x0c, 0x00, 0x00, 0x00,
  0x00, 0x00, 0x00, 0x09, 0xf4, 0x00, 0x00, 0x00, 0x5c, 0xf3, 0xff, 0xff,
  0x08, 0x00, 0x00, 0x00, 0x8c, 0x00, 0x00, 0x00, 0x10, 0x00, 0x00, 0x00,
  0x00, 0x00, 0x00, 0x00, 0x00, 0x00, 0x00, 0x00, 0x00, 0x00, 0x00, 0x00,
  0x00, 0x00, 0x00, 0x00, 0x00, 0x00, 0x00, 0x00, 0x00, 0x00, 0x00, 0x00,
  0x00, 0x00, 0x00, 0x00, 0x00, 0x00, 0x00, 0x00, 0x00, 0x00, 0x00, 0x00,
  0x00, 0x00, 0x00, 0x00, 0x00, 0x00, 0x00, 0x00, 0x00, 0x00, 0x00, 0x00,
  0x00, 0x00, 0x00, 0x00, 0x00, 0x00, 0x00, 0x00, 0x00, 0x00, 0x00, 0x00,
  0x00, 0x00, 0x00, 0x00, 0x00, 0x00, 0x00, 0x00, 0x00, 0x00, 0x00, 0x00,
  0x00, 0x00, 0x00, 0x00, 0x00, 0x00, 0x00, 0x00, 0x00, 0x00, 0x00, 0x00,
  0x00, 0x00, 0x00, 0x00, 0x00, 0x00, 0x00, 0x00, 0x00, 0x00, 0x00, 0x00,
  0x00, 0x00, 0x00, 0x00, 0x00, 0x00, 0x00, 0x00, 0x00, 0x00, 0x00, 0x00,
  0x00, 0x00, 0x00, 0x00, 0x00, 0x00, 0x00, 0x00, 0x00, 0x00, 0x00, 0x00,
  0x00, 0x00, 0x00, 0x00, 0x00, 0x00, 0x00, 0x00, 0x00, 0x00, 0x00, 0x00,
  0x10, 0x00, 0x00, 0x00, 0xc3, 0x27, 0xe1, 0x3a, 0xab, 0xfa, 0x1a, 0x3b,
  0x7e, 0x69, 0x49, 0x3b, 0x46, 0x6c, 0x12, 0x3b, 0x7c, 0xf4, 0xfe, 0x3a,
  0x7b, 0x86, 0x27, 0x3b, 0xa7, 0x91, 0xef, 0x3a, 0x73, 0x60, 0x22, 0x3b,
  0xe4, 0x3f, 0x1e, 0x3b, 0x3a, 0xec, 0xa1, 0x3b, 0x82, 0xb3, 0x22, 0x3b,
  0x35, 0x34, 0x92, 0x3b, 0x6b, 0x52, 0x1a, 0x3b, 0xa8, 0xbe, 0x86, 0x3b,
  0x30, 0x42, 0x2d, 0x3b, 0xc7, 0xf9, 0x4a, 0x3b, 0x12, 0x00, 0x00, 0x00,
  0x74, 0x66, 0x6c, 0x2e, 0x70, 0x73, 0x65, 0x75, 0x64, 0x6f, 0x5f, 0x71,
  0x63, 0x6f, 0x6e, 0x73, 0x74, 0x39, 0x00, 0x00, 0x04, 0x00, 0x00, 0x00,
  0x10, 0x00, 0x00, 0x00, 0x03, 0x00, 0x00, 0x00, 0x03, 0x00, 0x00, 0x00,
  0x01, 0x00, 0x00, 0x00, 0x02, 0xf5, 0xff, 0xff, 0x00, 0x00, 0x00, 0x01,
  0x14, 0x00, 0x00, 0x00, 0xe4, 0x00, 0x00, 0x00, 0x0b, 0x00, 0x00, 0x00,
  0x00, 0x00, 0x00, 0x02, 0xf0, 0x00, 0x00, 0x00, 0x7c, 0xf4, 0xff, 0xff,
  0x08, 0x00, 0x00, 0x00, 0x88, 0x00, 0x00, 0x00, 0x10, 0x00, 0x00, 0x00,
  0x00, 0x00, 0x00, 0x00, 0x00, 0x00, 0x00, 0x00, 0x00, 0x00, 0x00, 0x00,
  0x00, 0x00, 0x00, 0x00, 0x00, 0x00, 0x00, 0x00, 0x00, 0x00, 0x00, 0x00,
  0x00, 0x00, 0x00, 0x00, 0x00, 0x00, 0x00, 0x00, 0x00, 0x00, 0x00, 0x00,
  0x00, 0x00, 0x00, 0x00, 0x00, 0x00, 0x00, 0x00, 0x00, 0x00, 0x00, 0x00,
  0x00, 0x00, 0x00, 0x00, 0x00, 0x00, 0x00, 0x00, 0x00, 0x00, 0x00, 0x00,
  0x00, 0x00, 0x00, 0x00, 0x00, 0x00, 0x00, 0x00, 0x00, 0x00, 0x00, 0x00,
  0x00, 0x00, 0x00, 0x00, 0x00, 0x00, 0x00, 0x00, 0x00, 0x00, 0x00, 0x00,
  0x00, 0x00, 0x00, 0x00, 0x00, 0x00, 0x00, 0x00, 0x00, 0x00, 0x00, 0x00,
  0x00, 0x00, 0x00, 0x00, 0x00, 0x00, 0x00, 0x00, 0x00, 0x00, 0x00, 0x00,
  0x00, 0x00, 0x00, 0x00, 0x00, 0x00, 0x00, 0x00, 0x00, 0x00, 0x00, 0x00,
  0x00, 0x00, 0x00, 0x00, 0x00, 0x00, 0x00, 0x00, 0x10, 0x00, 0x00, 0x00,
  0x0f, 0xd2, 0x8e, 0x38, 0xe1, 0x9c, 0xc4, 0x38, 0xfb, 0x84, 0xff, 0x38,
  0x0e, 0xc2, 0xb9, 0x38, 0x1c, 0xb9, 0xa1, 0x38, 0x83, 0x87, 0xd4, 0x38,
  0xa1, 0xf6, 0x97, 0x38, 0x67, 0xff, 0xcd, 0x38, 0x03, 0xc3, 0xc8, 0x38,
  0xf6, 0x6b, 0x4d, 0x39, 0xc7, 0x68, 0xce, 0x38, 0xed, 0x7a, 0x39, 0x39,
  0x6e, 0xc7, 0xc3, 0x38, 0x4e, 0xf1, 0x2a, 0x39, 0x81, 0xcd, 0xdb, 0x38,
  0x66, 0xc0, 0x00, 0x39, 0x12, 0x00, 0x00, 0x00, 0x74, 0x66, 0x6c, 0x2e,
  0x70, 0x73, 0x65, 0x75, 0x64, 0x6f, 0x5f, 0x71, 0x63, 0x6f, 0x6e, 0x73,
  0x74, 0x38, 0x00, 0x00, 0x01, 0x00, 0x00, 0x00, 0x10, 0x00, 0x00, 0x00,
  0x12, 0xf6, 0xff, 0xff, 0x00, 0x00, 0x00, 0x01, 0x28, 0x00, 0x00, 0x00,
  0x00, 0x01, 0x00, 0x00, 0x0a, 0x00, 0x00, 0x00, 0x00, 0x00, 0x00, 0x09,
  0x0c, 0x01, 0x00, 0x00, 0x00, 0x00, 0x12, 0x00, 0x10, 0x00, 0x00, 0x00,
  0x00, 0x00, 0x0c, 0x00, 0x08, 0x00, 0x00, 0x00, 0x00, 0x00, 0x04, 0x00,
  0x12, 0x00, 0x00, 0x00, 0x03, 0x00, 0x00, 0x00, 0x08, 0x00, 0x00, 0x00,
  0x8c, 0x00, 0x00, 0x00, 0x10, 0x00, 0x00, 0x00, 0x00, 0x00, 0x00, 0x00,
  0x00, 0x00, 0x00, 0x00, 0x00, 0x00, 0x00, 0x00, 0x00, 0x00, 0x00, 0x00,
  0x00, 0x00, 0x00, 0x00, 0x00, 0x00, 0x00, 0x00, 0x00, 0x00, 0x00, 0x00,
  0x00, 0x00, 0x00, 0x00, 0x00, 0x00, 0x00, 0x00, 0x00, 0x00, 0x00, 0x00,
  0x00, 0x00, 0x00, 0x00, 0x00, 0x00, 0x00, 0x00, 0x00, 0x00, 0x00, 0x00,
  0x00, 0x00, 0x00, 0x00, 0x00, 0x00, 0x00, 0x00, 0x00, 0x00, 0x00, 0x00,
  0x00, 0x00, 0x00, 0x00, 0x00, 0x00, 0x00, 0x00, 0x00, 0x00, 0x00, 0x00,
  0x00, 0x00, 0x00, 0x00, 0x00, 0x00, 0x00, 0x00, 0x00, 0x00, 0x00, 0x00,
  0x00, 0x00, 0x00, 0x00, 0x00, 0x00, 0x00, 0x00, 0x00, 0x00, 0x00, 0x00,
  0x00, 0x00, 0x00, 0x00, 0x00, 0x00, 0x00, 0x00, 0x00, 0x00, 0x00, 0x00,
  0x00, 0x00, 0x00, 0x00, 0x00, 0x00, 0x00, 0x00, 0x00, 0x00, 0x00, 0x00,
  0x00, 0x00, 0x00, 0x00, 0x00, 0x00, 0x00, 0x00, 0x10, 0x00, 0x00, 0x00,
  0x12, 0x31, 0x0f, 0x3b, 0xf8, 0x9f, 0x1e, 0x3b, 0xfa, 0xe0, 0x24, 0x3b,
  0x72, 0xe2, 0x1b, 0x3b, 0xe5, 0x65, 0xfc, 0x3a, 0xed, 0x6c, 0x31, 0x3b,
  0x55, 0x3a, 0x15, 0x3b, 0x5a, 0xd3, 0x04, 0x3b, 0x62, 0x5d, 0x15, 0x3b,
  0xa9, 0x59, 0x88, 0x3b, 0x9f, 0x00, 0xde, 0x3a, 0xf7, 0x26, 0x68, 0x3b,
  0x69, 0xe5, 0x0f, 0x3b, 0x38, 0x8c, 0x06, 0x3b, 0x94, 0x9a, 0x31, 0x3b,
  0xb2, 0xc8, 0x30, 0x3b, 0x12, 0x00, 0x00, 0x00, 0x74, 0x66, 0x6c, 0x2e,
  0x70, 0x73, 0x65, 0x75, 0x64, 0x6f, 0x5f, 0x71, 0x63, 0x6f, 0x6e, 0x73,
  0x74, 0x37, 0x00, 0x00, 0x04, 0x00, 0x00, 0x00, 0x01, 0x00, 0x00, 0x00,
  0x03, 0x00, 0x00, 0x00, 0x03, 0x00, 0x00, 0x00, 0x10, 0x00, 0x00, 0x00,
  0x4a, 0xf7, 0xff, 0xff, 0x00, 0x00, 0x00, 0x01, 0x14, 0x00, 0x00, 0x00,
  0xe4, 0x00, 0x00, 0x00, 0x09, 0x00, 0x00, 0x00, 0x00, 0x00, 0x00, 0x02,
  0xf0, 0x00, 0x00, 0x00, 0xc4, 0xf6, 0xff, 0xff, 0x08, 0x00, 0x00, 0x00,
  0x88, 0x00, 0x00, 0x00, 0x10, 0x00, 0x00, 0x00, 0x00, 0x00, 0x00, 0x00,
  0x00, 0x00, 0x00, 0x00, 0x00, 0x00, 0x00, 0x00, 0x00, 0x00, 0x00, 0x00,
  0x00, 0x00, 0x00, 0x00, 0x00, 0x00, 0x00, 0x00, 0x00, 0x00, 0x00, 0x00,
  0x00, 0x00, 0x00, 0x00, 0x00, 0x00, 0x00, 0x00, 0x00, 0x00, 0x00, 0x00,
  0x00, 0x00, 0x00, 0x00, 0x00, 0x00, 0x00, 0x00, 0x00, 0x00, 0x00, 0x00,
  0x00, 0x00, 0x00, 0x00, 0x00, 0x00, 0x00, 0x00, 0x00, 0x00, 0x00, 0x00,
  0x00, 0x00, 0x00, 0x00, 0x00, 0x00, 0x00, 0x00, 0x00, 0x00, 0x00, 0x00,
  0x00, 0x00, 0x00, 0x00, 0x00, 0x00, 0x00, 0x00, 0x00, 0x00, 0x00, 0x00,
  0x00, 0x00, 0x00, 0x00, 0x00, 0x00, 0x00, 0x00, 0x00, 0x00, 0x00, 0x00,
  0x00, 0x00, 0x00, 0x00, 0x00, 0x00, 0x00, 0x00, 0x00, 0x00, 0x00, 0x00,
  0x00, 0x00, 0x00, 0x00, 0x00, 0x00, 0x00, 0x00, 0x00, 0x00, 0x00, 0x00,
  0x00, 0x00, 0x00, 0x00, 0x10, 0x00, 0x00, 0x00, 0x7d, 0xb2, 0xb6, 0x38,
  0x6a, 0x63, 0xca, 0x38, 0x20, 0x5e, 0xd2, 0x38, 0x58, 0xe4, 0xc6, 0x38,
  0x33, 0x04, 0xa1, 0x38, 0x3b, 0x60, 0xe2, 0x38, 0x14, 0x66, 0xbe, 0x38,
  0xa1, 0x78, 0xa9, 0x38, 0xcd, 0x92, 0xbe, 0x38, 0xe1, 0xf7, 0x2d, 0x39,
  0x2a, 0xa0, 0x8d, 0x38, 0xc5, 0x19, 0x14, 0x39, 0x95, 0x98, 0xb7, 0x38,
  0x21, 0xab, 0xab, 0x38, 0x7a, 0x9a, 0xe2, 0x38, 0xb0, 0x8e, 0xe1, 0x38,
  0x12, 0x00, 0x00, 0x00, 0x74, 0x66, 0x6c, 0x2e, 0x70, 0x73, 0x65, 0x75,
  0x64, 0x6f, 0x5f, 0x71, 0x63, 0x6f, 0x6e, 0x73, 0x74, 0x36, 0x00, 0x00,
  0x01, 0x00, 0x00, 0x00, 0x10, 0x00, 0x00, 0x00, 0x5a, 0xf8, 0xff, 0xff,
  0x00, 0x00, 0x00, 0x01, 0x14, 0x00, 0x00, 0x00, 0x48, 0x01, 0x00, 0x00,
  0x08, 0x00, 0x00, 0x00, 0x00, 0x00, 0x00, 0x09, 0x54, 0x01, 0x00, 0x00,
  0xd4, 0xf7, 0xff, 0xff, 0x08, 0x00, 0x00, 0x00, 0xcc, 0x00, 0x00, 0x00,
  0x18, 0x00, 0x00, 0x00, 0x00, 0x00, 0x00, 0x00, 0x00, 0x00, 0x00, 0x00,
  0x00, 0x00, 0x00, 0x00, 0x00, 0x00, 0x00, 0x00, 0x00, 0x00, 0x00, 0x00,
  0x00, 0x00, 0x00, 0x00, 0x00, 0x00, 0x00, 0x00, 0x00, 0x00, 0x00, 0x00,
  0x00, 0x00, 0x00, 0x00, 0x00, 0x00, 0x00, 0x00, 0x00, 0x00, 0x00, 0x00,
  0x00, 0x00, 0x00, 0x00, 0x00, 0x00, 0x00, 0x00, 0x00, 0x00, 0x00, 0x00,
  0x00, 0x00, 0x00, 0x00, 0x00, 0x00, 0x00, 0x00, 0x00, 0x00, 0x00, 0x00,
  0x00, 0x00, 0x00, 0x00, 0x00, 0x00, 0x00, 0x00, 0x00, 0x00, 0x00, 0x00,
  0x00, 0x00, 0x00, 0x00, 0x00, 0x00, 0x00, 0x00, 0x00, 0x00, 0x00, 0x00,
  0x00, 0x00, 0x00, 0x00, 0x00, 0x00, 0x00, 0x00, 0x00, 0x00, 0x00, 0x00,
  0x00, 0x00, 0x00, 0x00, 0x00, 0x00, 0x00, 0x00, 0x00, 0x00, 0x00, 0x00,
  0x00, 0x00, 0x00, 0x00, 0x00, 0x00, 0x00, 0x00, 0x00, 0x00, 0x00, 0x00,
  0x00, 0x00, 0x00, 0x00, 0x00, 0x00, 0x00, 0x00, 0x00, 0x00, 0x00, 0x00,
  0x00, 0x00, 0x00, 0x00, 0x00, 0x00, 0x00, 0x00, 0x00, 0x00, 0x00, 0x00,
  0x00, 0x00, 0x00, 0x00, 0x00, 0x00, 0x00, 0x00, 0x00, 0x00, 0x00, 0x00,
  0x00, 0x00, 0x00, 0x00, 0x00, 0x00, 0x00, 0x00, 0x00, 0x00, 0x00, 0x00,
  0x00, 0x00, 0x00, 0x00, 0x00, 0x00, 0x00, 0x00, 0x00, 0x00, 0x00, 0x00,
  0x00, 0x00, 0x00, 0x00, 0x00, 0x00, 0x00, 0x00, 0x18, 0x00, 0x00, 0x00,
  0x0e, 0xdf, 0x48, 0x3b, 0x37, 0x3f, 0x79, 0x3b, 0x50, 0xba, 0x52, 0x3b,
  0x5f, 0x2d, 0x4c, 0x3b, 0x7c, 0x41, 0x99, 0x3b, 0x73, 0x9f, 0x37, 0x3b,
  0x94, 0xd8, 0x7b, 0x3b, 0x57, 0x44, 0x46, 0x3b, 0x39, 0x39, 0x1e, 0x3b,
  0x8c, 0x85, 0xb5, 0x3b, 0x7b, 0x85, 0x52, 0x3b, 0x51, 0x6e, 0x8e, 0x3b,
  0xd7, 0x55, 0x43, 0x3b, 0xd7, 0x01, 0x4f, 0x3b, 0x2a, 0xab, 0x0c, 0x3b,
  0x5e, 0xbf, 0x04, 0x3b, 0xd2, 0x65, 0x11, 0x3b, 0x7b, 0xc3, 0x6f, 0x3b,
  0x66, 0xcb, 0x94, 0x3b, 0x7a, 0xb3, 0x69, 0x3b, 0xb0, 0x79, 0x67, 0x3b,
  0xcd, 0x80, 0x69, 0x3b, 0x09, 0x3e, 0x90, 0x3b, 0xa4, 0xce, 0x66, 0x3b,
  0x12, 0x00, 0x00, 0x00, 0x74, 0x66, 0x6c, 0x2e, 0x70, 0x73, 0x65, 0x75,
  0x64, 0x6f, 0x5f, 0x71, 0x63, 0x6f, 0x6e, 0x73, 0x74, 0x35, 0x00, 0x00,
  0x04, 0x00, 0x00, 0x00, 0x18, 0x00, 0x00, 0x00, 0x03, 0x00, 0x00, 0x00,
  0x03, 0x00, 0x00, 0x00, 0x10, 0x00, 0x00, 0x00, 0xda, 0xf9, 0xff, 0xff,
  0x00, 0x00, 0x00, 0x01, 0x14, 0x00, 0x00, 0x00, 0x44, 0x01, 0x00, 0x00,
  0x07, 0x00, 0x00, 0x00, 0x00, 0x00, 0x00, 0x02, 0x50, 0x01, 0x00, 0x00,
  0x54, 0xf9, 0xff, 0xff, 0x08, 0x00, 0x00, 0x00, 0xc8, 0x00, 0x00, 0x00,
  0x18, 0x00, 0x00, 0x00, 0x00, 0x00, 0x00, 0x00, 0x00, 0x00, 0x00, 0x00,
  0x00, 0x00, 0x00, 0x00, 0x00, 0x00, 0x00, 0x00, 0x00, 0x00, 0x00, 0x00,
  0x00, 0x00, 0x00, 0x00, 0x00, 0x00, 0x00, 0x00, 0x00, 0x00, 0x00, 0x00,
  0x00, 0x00, 0x00, 0x00, 0x00, 0x00, 0x00, 0x00, 0x00, 0x00, 0x00, 0x00,
  0x00, 0x00, 0x00, 0x00, 0x00, 0x00, 0x00, 0x00, 0x00, 0x00, 0x00, 0x00,
  0x00, 0x00, 0x00, 0x00, 0x00, 0x00, 0x00, 0x00, 0x00, 0x00, 0x00, 0x00,
  0x00, 0x00, 0x00, 0x00, 0x00, 0x00, 0x00, 0x00, 0x00, 0x00, 0x00, 0x00,
  0x00, 0x00, 0x00, 0x00, 0x00, 0x00, 0x00, 0x00, 0x00, 0x00, 0x00, 0x00,
  0x00, 0x00, 0x00, 0x00, 0x00, 0x00, 0x00, 0x00, 0x00, 0x00, 0x00, 0x00,
  0x00, 0x00, 0x00, 0x00, 0x00, 0x00, 0x00, 0x00, 0x00, 0x00, 0x00, 0x00,
  0x00, 0x00, 0x00, 0x00, 0x00, 0x00, 0x00, 0x00, 0x00, 0x00, 0x00, 0x00,
  0x00, 0x00, 0x00, 0x00, 0x00, 0x00, 0x00, 0x00, 0x00, 0x00, 0x00, 0x00,
  0x00, 0x00, 0x00, 0x00, 0x00, 0x00, 0x00, 0x00, 0x00, 0x00, 0x00, 0x00,
  0x00, 0x00, 0x00, 0x00, 0x00, 0x00, 0x00, 0x00, 0x00, 0x00, 0x00, 0x00,
  0x00, 0x00, 0x00, 0x00, 0x00, 0x00, 0x00, 0x00, 0x00, 0x00, 0x00, 0x00,
  0x00, 0x00, 0x00, 0x00, 0x00, 0x00, 0x00, 0x00, 0x00, 0x00, 0x00, 0x00,
  0x00, 0x00, 0x00, 0x00, 0x18, 0x00, 0x00, 0x00, 0x88, 0x00, 0x0d, 0x39,
  0x9f, 0xf5, 0x2e, 0x39, 0xbd, 0xeb, 0x13, 0x39, 0x9b, 0x52, 0x0f, 0x39,
  0x11, 0x28, 0x57, 0x39, 0xfc, 0xe4, 0x00, 0x39, 0xac, 0xc8, 0x30, 0x39,
  0x87, 0x2c, 0x0b, 0x39, 0x77, 0x21, 0xde, 0x38, 0xcf, 0xd6, 0x7e, 0x39,
  0xa7, 0xc6, 0x13, 0x39, 0x9d, 0xf5, 0x47, 0x39, 0xb7, 0x1d, 0x09, 0x39,
  0x26, 0x4f, 0x11, 0x39, 0x3d, 0x7c, 0xc5, 0x38, 0x67, 0x5d, 0xba, 0x38,
  0xe2, 0x1f, 0xcc, 0x38, 0x77, 0x4d, 0x28, 0x39, 0xb0, 0xe4, 0x50, 0x39,
  0x09, 0x0c, 0x24, 0x39, 0x12, 0x7c, 0x22, 0x39, 0x76, 0xe8, 0x23, 0x39,
  0xa1, 0x80, 0x4a, 0x39, 0x01, 0x04, 0x22, 0x39, 0x12, 0x00, 0x00, 0x00,
  0x74, 0x66, 0x6c, 0x2e, 0x70, 0x73, 0x65, 0x75, 0x64, 0x6f, 0x5f, 0x71,
  0x63, 0x6f, 0x6e, 0x73, 0x74, 0x34, 0x00, 0x00, 0x01, 0x00, 0x00, 0x00,
  0x18, 0x00, 0x00, 0x00, 0x4a, 0xfb, 0xff, 0xff, 0x00, 0x00, 0x00, 0x01,
  0x14, 0x00, 0x00, 0x00, 0xa8, 0x01, 0x00, 0x00, 0x06, 0x00, 0x00, 0x00,
  0x00, 0x00, 0x00, 0x09, 0xb4, 0x01, 0x00, 0x00, 0xc4, 0xfa, 0xff, 0xff,
  0x08, 0x00, 0x00, 0x00, 0x0c, 0x01, 0x00, 0x00, 0x20, 0x00, 0x00, 0x00,
  0x00, 0x00, 0x00, 0x00, 0x00, 0x00, 0x00, 0x00, 0x00, 0x00, 0x00, 0x00,
  0x00, 0x00, 0x00, 0x00, 0x00, 0x00, 0x00, 0x00, 0x00, 0x00, 0x00, 0x00,
  0x00, 0x00, 0x00, 0x00, 0x00, 0x00, 0x00, 0x00, 0x00, 0x00, 0x00, 0x00,
  0x00, 0x00, 0x00, 0x00, 0x00, 0x00, 0x00, 0x00, 0x00, 0x00, 0x00, 0x00,
  0x00, 0x00, 0x00, 0x00, 0x00, 0x00, 0x00, 0x00, 0x00, 0x00, 0x00, 0x00,
  0x00, 0x00, 0x00, 0x00, 0x00, 0x00, 0x00, 0x00, 0x00, 0x00, 0x00, 0x00,
  0x00, 0x00, 0x00, 0x00, 0x00, 0x00, 0x00, 0x00, 0x00, 0x00, 0x00, 0x00,
  0x00, 0x00, 0x00, 0x00, 0x00, 0x00, 0x00, 0x00, 0x00, 0x00, 0x00, 0x00,
  0x00, 0x00, 0x00, 0x00, 0x00, 0x00, 0x00, 0x00, 0x00, 0x00, 0x00, 0x00,
  0x00, 0x00, 0x00, 0x00, 0x00, 0x00, 0x00, 0x00, 0x00, 0x00, 0x00, 0x00,
  0x00, 0x00, 0x00, 0x00, 0x00, 0x00, 0x00, 0x00, 0x00, 0x00, 0x00, 0x00,
  0x00, 0x00, 0x00, 0x00, 0x00, 0x00, 0x00, 0x00, 0x00, 0x00, 0x00, 0x00,
  0x00, 0x00, 0x00, 0x00, 0x00, 0x00, 0x00, 0x00, 0x00, 0x00, 0x00, 0x00,
  0x00, 0x00, 0x00, 0x00, 0x00, 0x00, 0x00, 0x00, 0x00, 0x00, 0x00, 0x00,
  0x00, 0x00, 0x00, 0x00, 0x00, 0x00, 0x00, 0x00, 0x00, 0x00, 0x00, 0x00,
  0x00, 0x00, 0x00, 0x00, 0x00, 0x00, 0x00, 0x00, 0x00, 0x00, 0x00, 0x00,
  0x00, 0x00, 0x00, 0x00, 0x00, 0x00, 0x00, 0x00, 0x00, 0x00, 0x00, 0x00,
  0x00, 0x00, 0x00, 0x00, 0x00, 0x00, 0x00, 0x00, 0x00, 0x00, 0x00, 0x00,
  0x00, 0x00, 0x00, 0x00, 0x00, 0x00, 0x00, 0x00, 0x00, 0x00, 0x00, 0x00,
  0x00, 0x00, 0x00, 0x00, 0x00, 0x00, 0x00, 0x00, 0x00, 0x00, 0x00, 0x00,
  0x00, 0x00, 0x00, 0x00, 0x00, 0x00, 0x00, 0x00, 0x00, 0x00, 0x00, 0x00,
  0x00, 0x00, 0x00, 0x00, 0x00, 0x00, 0x00, 0x00, 0x20, 0x00, 0x00, 0x00,
  0x75, 0xe9, 0x18, 0x3b, 0x9e, 0x7d, 0x2d, 0x3b, 0x19, 0xf5, 0x35, 0x3b,
  0xce, 0x73, 0x17, 0x3b, 0x8d, 0xf5, 0x60, 0x3b, 0x09, 0x85, 0x96, 0x3b,
  0xaa, 0xa7, 0x88, 0x3b, 0xc8, 0xb3, 0x39, 0x3b, 0x58, 0x76, 0x20, 0x3b,
  0x15, 0x0f, 0x27, 0x3b, 0x3f, 0x7b, 0x21, 0x3b, 0x39, 0x76, 0x9d, 0x3b,
  0x98, 0xe4, 0x71, 0x3b, 0x81, 0xd1, 0x49, 0x3b, 0xac, 0x69, 0xa9, 0x3b,
  0x4c, 0xf4, 0x3a, 0x3b, 0x01, 0xf5, 0xa1, 0x3b, 0xe9, 0xbc, 0x22, 0x3b,
  0xea, 0xc1, 0x93, 0x3b, 0xbd, 0xcc, 0x24, 0x3b, 0x97, 0x9b, 0xaa, 0x3b,
  0x74, 0x1b, 0x8b, 0x3b, 0xb9, 0x77, 0x29, 0x3b, 0x2d, 0x64, 0xb3, 0x3b,
  0x3e, 0xd4, 0x26, 0x3b, 0x0c, 0x35, 0x27, 0x3b, 0xf7, 0x6e, 0x35, 0x3b,
  0xc3, 0x42, 0x2d, 0x3b, 0xff, 0xe2, 0x79, 0x3b, 0xee, 0x42, 0x25, 0x3b,
  0x77, 0x6d, 0xad, 0x3b, 0xd0, 0x52, 0x1e, 0x3b, 0x12, 0x00, 0x00, 0x00,
  0x74, 0x66, 0x6c, 0x2e, 0x70, 0x73, 0x65, 0x75, 0x64, 0x6f, 0x5f, 0x71,
  0x63, 0x6f, 0x6e, 0x73, 0x74, 0x33, 0x00, 0x00, 0x02, 0x00, 0x00, 0x00,
  0x20, 0x00, 0x00, 0x00, 0x18, 0x00, 0x00, 0x00, 0x22, 0xfd, 0xff, 0xff,
  0x00, 0x00, 0x00, 0x01, 0x14, 0x00, 0x00, 0x00, 0xa4, 0x01, 0x00, 0x00,
  0x05, 0x00, 0x00, 0x00, 0x00, 0x00, 0x00, 0x02, 0xb0, 0x01, 0x00, 0x00,
  0x9c, 0xfc, 0xff, 0xff, 0x08, 0x00, 0x00, 0x00, 0x08, 0x01, 0x00, 0x00,
  0x20, 0x00, 0x00, 0x00, 0x00, 0x00, 0x00, 0x00, 0x00, 0x00, 0x00, 0x00,
  0x00, 0x00, 0x00, 0x00, 0x00, 0x00, 0x00, 0x00, 0x00, 0x00, 0x00, 0x00,
  0x00, 0x00, 0x00, 0x00, 0x00, 0x00, 0x00, 0x00, 0x00, 0x00, 0x00, 0x00,
  0x00, 0x00, 0x00, 0x00, 0x00, 0x00, 0x00, 0x00, 0x00, 0x00, 0x00, 0x00,
  0x00, 0x00, 0x00, 0x00, 0x00, 0x00, 0x00, 0x00, 0x00, 0x00, 0x00, 0x00,
  0x00, 0x00, 0x00, 0x00, 0x00, 0x00, 0x00, 0x00, 0x00, 0x00, 0x00, 0x00,
  0x00, 0x00, 0x00, 0x00, 0x00, 0x00, 0x00, 0x00, 0x00, 0x00, 0x00, 0x00,
  0x00, 0x00, 0x00, 0x00, 0x00, 0x00, 0x00, 0x00, 0x00, 0x00, 0x00, 0x00,
  0x00, 0x00, 0x00, 0x00, 0x00, 0x00, 0x00, 0x00, 0x00, 0x00, 0x00, 0x00,
  0x00, 0x00, 0x00, 0x00, 0x00, 0x00, 0x00, 0x00, 0x00, 0x00, 0x00, 0x00,
  0x00, 0x00, 0x00, 0x00, 0x00, 0x00, 0x00, 0x00, 0x00, 0x00, 0x00, 0x00,
  0x00, 0x00, 0x00, 0x00, 0x00, 0x00, 0x00, 0x00, 0x00, 0x00, 0x00, 0x00,
  0x00, 0x00, 0x00, 0x00, 0x00, 0x00, 0x00, 0x00, 0x00, 0x00, 0x00, 0x00,
  0x00, 0x00, 0x00, 0x00, 0x00, 0x00, 0x00, 0x00, 0x00, 0x00, 0x00, 0x00,
  0x00, 0x00, 0x00, 0x00, 0x00, 0x00, 0x00, 0x00, 0x00, 0x00, 0x00, 0x00,
  0x00, 0x00, 0x00, 0x00, 0x00, 0x00, 0x00, 0x00, 0x00, 0x00, 0x00, 0x00,
  0x00, 0x00, 0x00, 0x00, 0x00, 0x00, 0x00, 0x00, 0x00, 0x00, 0x00, 0x00,
  0x00, 0x00, 0x00, 0x00, 0x00, 0x00, 0x00, 0x00, 0x00, 0x00, 0x00, 0x00,
  0x00, 0x00, 0x00, 0x00, 0x00, 0x00, 0x00, 0x00, 0x00, 0x00, 0x00, 0x00,
  0x00, 0x00, 0x00, 0x00, 0x00, 0x00, 0x00, 0x00, 0x00, 0x00, 0x00, 0x00,
  0x00, 0x00, 0x00, 0x00, 0x00, 0x00, 0x00, 0x00, 0x00, 0x00, 0x00, 0x00,
  0x00, 0x00, 0x00, 0x00, 0x00, 0x00, 0x00, 0x00, 0x20, 0x00, 0x00, 0x00,
  0xdb, 0xfe, 0x52, 0x38, 0x20, 0x64, 0x6f, 0x38, 0xec, 0x12, 0x7b, 0x38,
  0x45, 0xfb, 0x50, 0x38, 0x78, 0x34, 0x9b, 0x38, 0xce, 0xb1, 0xcf, 0x38,
  0x35, 0x90, 0xbc, 0x38, 0xe2, 0x1e, 0x80, 0x38, 0xf3, 0x69, 0x5d, 0x38,
  0x28, 0x84, 0x66, 0x38, 0xf4, 0xd1, 0x5e, 0x38, 0x0f, 0x46, 0xd9, 0x38,
  0x53, 0xe3, 0xa6, 0x38, 0x52, 0x3d, 0x8b, 0x38, 0xa3, 0xc3, 0xe9, 0x38,
  0x03, 0xfc, 0x80, 0x38, 0xf6, 0x79, 0xdf, 0x38, 0xce, 0x8d, 0x60, 0x38,
  0x16, 0xe2, 0xcb, 0x38, 0x20, 0x66, 0x63, 0x38, 0xc2, 0x69, 0xeb, 0x38,
  0x76, 0xf2, 0xbf, 0x38, 0x07, 0xd7, 0x69, 0x38, 0x78, 0x88, 0xf7, 0x38,
  0xf7, 0x32, 0x66, 0x38, 0x8a, 0xb8, 0x66, 0x38, 0xd7, 0x59, 0x7a, 0x38,
  0xea, 0x12, 0x6f, 0x38, 0x30, 0x67, 0xac, 0x38, 0x37, 0x09, 0x64, 0x38,
  0xd7, 0x4d, 0xef, 0x38, 0x70, 0x76, 0x5a, 0x38, 0x12, 0x00, 0x00, 0x00,
  0x74, 0x66, 0x6c, 0x2e, 0x70, 0x73, 0x65, 0x75, 0x64, 0x6f, 0x5f, 0x71,
  0x63, 0x6f, 0x6e, 0x73, 0x74, 0x32, 0x00, 0x00, 0x01, 0x00, 0x00, 0x00,
  0x20, 0x00, 0x00, 0x00, 0xf2, 0xfe, 0xff, 0xff, 0x00, 0x00, 0x00, 0x01,
  0x14, 0x00, 0x00, 0x00, 0x58, 0x00, 0x00, 0x00, 0x04, 0x00, 0x00, 0x00,
  0x00, 0x00, 0x00, 0x09, 0x64, 0x00, 0x00, 0x00, 0x6c, 0xfe, 0xff, 0xff,
  0x08, 0x00, 0x00, 0x00, 0x2c, 0x00, 0x00, 0x00, 0x04, 0x00, 0x00, 0x00,
  0x00, 0x00, 0x00, 0x00, 0x00, 0x00, 0x00, 0x00, 0x00, 0x00, 0x00, 0x00,
  0x00, 0x00, 0x00, 0x00, 0x00, 0x00, 0x00, 0x00, 0x00, 0x00, 0x00, 0x00,
  0x00, 0x00, 0x00, 0x00, 0x00, 0x00, 0x00, 0x00, 0x00, 0x00, 0x00, 0x00,
  0x04, 0x00, 0x00, 0x00, 0xfe, 0x0b, 0x22, 0x3c, 0x4e, 0x19, 0x60, 0x3b,
  0x32, 0xe5, 0xae, 0x3b, 0xed, 0x6e, 0xf5, 0x3b, 0x12, 0x00, 0x00, 0x00,
  0x74, 0x66, 0x6c, 0x2e, 0x70, 0x73, 0x65, 0x75, 0x64, 0x6f, 0x5f, 0x71,
  0x63, 0x6f, 0x6e, 0x73, 0x74, 0x31, 0x00, 0x00, 0x02, 0x00, 0x00, 0x00,
  0x04, 0x00, 0x00, 0x00, 0x20, 0x00, 0x00, 0x00, 0x7a, 0xff, 0xff, 0xff,
  0x00, 0x00, 0x00, 0x01, 0x14, 0x00, 0x00, 0x00, 0x58, 0x00, 0x00, 0x00,
  0x03, 0x00, 0x00, 0x00, 0x00, 0x00, 0x00, 0x02, 0x64, 0x00, 0x00, 0x00,
  0xf4, 0xfe, 0xff, 0xff, 0x08, 0x00, 0x00, 0x00, 0x2c, 0x00, 0x00, 0x00,
  0x04, 0x00, 0x00, 0x00, 0x00, 0x00, 0x00, 0x00, 0x00, 0x00, 0x00, 0x00,
  0x00, 0x00, 0x00, 0x00, 0x00, 0x00, 0x00, 0x00, 0x00, 0x00, 0x00, 0x00,
  0x00, 0x00, 0x00, 0x00, 0x00, 0x00, 0x00, 0x00, 0x00, 0x00, 0x00, 0x00,
  0x00, 0x00, 0x00, 0x00, 0x04, 0x00, 0x00, 0x00, 0x7c, 0x38, 0x86, 0x39,
  0x04, 0x9e, 0xb9, 0x38, 0xe0, 0xdc, 0x10, 0x39, 0xc9, 0x49, 0x4b, 0x39,
  0x11, 0x00, 0x00, 0x00, 0x74, 0x66, 0x6c, 0x2e, 0x70, 0x73, 0x65, 0x75,
  0x64, 0x6f, 0x5f, 0x71, 0x63, 0x6f, 0x6e, 0x73, 0x74, 0x00, 0x00, 0x00,
  0x01, 0x00, 0x00, 0x00, 0x04, 0x00, 0x00, 0x00, 0x00, 0x00, 0x16, 0x00,
  0x1c, 0x00, 0x18, 0x00, 0x17, 0x00, 0x10, 0x00, 0x0c, 0x00, 0x08, 0x00,
  0x00, 0x00, 0x00, 0x00, 0x00, 0x00, 0x07, 0x00, 0x16, 0x00, 0x00, 0x00,
  0x00, 0x00, 0x00, 0x01, 0x18, 0x00, 0x00, 0x00, 0x18, 0x00, 0x00, 0x00,
  0x02, 0x00, 0x00, 0x00, 0x00, 0x00, 0x00, 0x02, 0x20, 0x00, 0x00, 0x00,
  0x04, 0x00, 0x04, 0x00, 0x04, 0x00, 0x00, 0x00, 0x0e, 0x00, 0x00, 0x00,
  0x61, 0x72, 0x69, 0x74, 0x68, 0x2e, 0x63, 0x6f, 0x6e, 0x73, 0x74, 0x61,
  0x6e, 0x74, 0x00, 0x00, 0x01, 0x00, 0x00, 0x00, 0x02, 0x00, 0x00, 0x00,
  0x00, 0x00, 0x16, 0x00, 0x20, 0x00, 0x1c, 0x00, 0x1b, 0x00, 0x14, 0x00,
  0x10, 0x00, 0x0c, 0x00, 0x00, 0x00, 0x00, 0x00, 0x08, 0x00, 0x07, 0x00,
  0x16, 0x00, 0x00, 0x00, 0x00, 0x00, 0x00, 0x01, 0x18, 0x00, 0x00, 0x00,
  0x34, 0x00, 0x00, 0x00, 0x50, 0x00, 0x00, 0x00, 0x01, 0x00, 0x00, 0x00,
  0x00, 0x00, 0x00, 0x09, 0x6c, 0x00, 0x00, 0x00, 0x04, 0x00, 0x00, 0x00,
  0xff, 0xff, 0xff, 0xff, 0x50, 0x00, 0x00, 0x00, 0x20, 0x00, 0x00, 0x00,
  0x01, 0x00, 0x00, 0x00, 0x0c, 0x00, 0x0c, 0x00, 0x00, 0x00, 0x00, 0x00,
  0x08, 0x00, 0x04, 0x00, 0x0c, 0x00, 0x00, 0x00, 0x08, 0x00, 0x00, 0x00,
  0x10, 0x00, 0x00, 0x00, 0x01, 0x00, 0x00, 0x00, 0x00, 0x00, 0x00, 0x00,
  0x00, 0x00, 0x00, 0x00, 0x01, 0x00, 0x00, 0x00, 0xcd, 0x62, 0x22, 0x3d,
  0x21, 0x00, 0x00, 0x00, 0x73, 0x65, 0x72, 0x76, 0x69, 0x6e, 0x67, 0x5f,
  0x64, 0x65, 0x66, 0x61, 0x75, 0x6c, 0x74, 0x5f, 0x6b, 0x65, 0x72, 0x61,
  0x73, 0x5f, 0x74, 0x65, 0x6e, 0x73, 0x6f, 0x72, 0x5f, 0x34, 0x37, 0x3a,
  0x30, 0x00, 0x00, 0x00, 0x04, 0x00, 0x00, 0x00, 0x01, 0x00, 0x00, 0x00,
  0x50, 0x00, 0x00, 0x00, 0x20, 0x00, 0x00, 0x00, 0x01, 0x00, 0x00, 0x00,
  0x05, 0x00, 0x00, 0x00, 0x60, 0x00, 0x00, 0x00, 0x40, 0x00, 0x00, 0x00,
  0x2c, 0x00, 0x00, 0x00, 0x18, 0x00, 0x00, 0x00, 0x04, 0x00, 0x00, 0x00,
  0xc0, 0xff, 0xff, 0xff, 0x19, 0x00, 0x00, 0x00, 0x02, 0x00, 0x00, 0x00,
  0x00, 0x00, 0x00, 0x19, 0xd0, 0xff, 0xff, 0xff, 0x09, 0x00, 0x00, 0x00,
  0x04, 0x00, 0x00, 0x00, 0x00, 0x00, 0x00, 0x09, 0xe0, 0xff, 0xff, 0xff,
  0x28, 0x00, 0x00, 0x00, 0x02, 0x00, 0x00, 0x00, 0x00, 0x00, 0x00, 0x28,
  0xf0, 0xff, 0xff, 0xff, 0x04, 0x00, 0x00, 0x00, 0x03, 0x00, 0x00, 0x00,
  0x00, 0x00, 0x00, 0x04, 0x0c, 0x00, 0x10, 0x00, 0x0f, 0x00, 0x00, 0x00,
  0x08, 0x00, 0x04, 0x00, 0x0c, 0x00, 0x00, 0x00, 0x03, 0x00, 0x00, 0x00,
  0x03, 0x00, 0x00, 0x00, 0x00, 0x00, 0x00, 0x03
};
#endif
