/*
 * Copyright (c) 2021 Arm Limited and Contributors. All rights reserved.
 *
 * SPDX-License-Identifier: Apache-2.0
 * 
 */

#ifndef _TFLITE_MODEL_H_
#define _TFLITE_MODEL_H_

alignas(8) const unsigned char tflite_model[] = {
  0x1c, 0x00, 0x00, 0x00, 0x54, 0x46, 0x4c, 0x33, 0x14, 0x00, 0x20, 0x00,
  0x1c, 0x00, 0x18, 0x00, 0x14, 0x00, 0x10, 0x00, 0x0c, 0x00, 0x00, 0x00,
  0x08, 0x00, 0x04, 0x00, 0x14, 0x00, 0x00, 0x00, 0x1c, 0x00, 0x00, 0x00,
  0x98, 0x00, 0x00, 0x00, 0xf0, 0x00, 0x00, 0x00, 0x70, 0x4c, 0x00, 0x00,
  0x80, 0x4c, 0x00, 0x00, 0x24, 0x57, 0x00, 0x00, 0x03, 0x00, 0x00, 0x00,
  0x01, 0x00, 0x00, 0x00, 0x10, 0x00, 0x00, 0x00, 0x00, 0x00, 0x0a, 0x00,
  0x10, 0x00, 0x0c, 0x00, 0x08, 0x00, 0x04, 0x00, 0x0a, 0x00, 0x00, 0x00,
  0x0c, 0x00, 0x00, 0x00, 0x1c, 0x00, 0x00, 0x00, 0x3c, 0x00, 0x00, 0x00,
  0x0f, 0x00, 0x00, 0x00, 0x73, 0x65, 0x72, 0x76, 0x69, 0x6e, 0x67, 0x5f,
  0x64, 0x65, 0x66, 0x61, 0x75, 0x6c, 0x74, 0x00, 0x01, 0x00, 0x00, 0x00,
  0x04, 0x00, 0x00, 0x00, 0x90, 0xff, 0xff, 0xff, 0x12, 0x00, 0x00, 0x00,
  0x04, 0x00, 0x00, 0x00, 0x08, 0x00, 0x00, 0x00, 0x6f, 0x75, 0x74, 0x70,
  0x75, 0x74, 0x5f, 0x30, 0x00, 0x00, 0x00, 0x00, 0x01, 0x00, 0x00, 0x00,
  0x04, 0x00, 0x00, 0x00, 0x7a, 0xb3, 0xff, 0xff, 0x04, 0x00, 0x00, 0x00,
  0x0f, 0x00, 0x00, 0x00, 0x6b, 0x65, 0x72, 0x61, 0x73, 0x5f, 0x74, 0x65,
  0x6e, 0x73, 0x6f, 0x72, 0x5f, 0x32, 0x31, 0x00, 0x02, 0x00, 0x00, 0x00,
  0x34, 0x00, 0x00, 0x00, 0x04, 0x00, 0x00, 0x00, 0xdc, 0xff, 0xff, 0xff,
  0x15, 0x00, 0x00, 0x00, 0x04, 0x00, 0x00, 0x00, 0x13, 0x00, 0x00, 0x00,
  0x43, 0x4f, 0x4e, 0x56, 0x45, 0x52, 0x53, 0x49, 0x4f, 0x4e, 0x5f, 0x4d,
  0x45, 0x54, 0x41, 0x44, 0x41, 0x54, 0x41, 0x00, 0x08, 0x00, 0x0c, 0x00,
  0x08, 0x00, 0x04, 0x00, 0x08, 0x00, 0x00, 0x00, 0x14, 0x00, 0x00, 0x00,
  0x04, 0x00, 0x00, 0x00, 0x13, 0x00, 0x00, 0x00, 0x6d, 0x69, 0x6e, 0x5f,
  0x72, 0x75, 0x6e, 0x74, 0x69, 0x6d, 0x65, 0x5f, 0x76, 0x65, 0x72, 0x73,
  0x69, 0x6f, 0x6e, 0x00, 0x16, 0x00, 0x00, 0x00, 0x7c, 0x4b, 0x00, 0x00,
  0x74, 0x4b, 0x00, 0x00, 0xe4, 0x4a, 0x00, 0x00, 0x74, 0x4a, 0x00, 0x00,
  0x24, 0x4a, 0x00, 0x00, 0x04, 0x4a, 0x00, 0x00, 0xf4, 0x13, 0x00, 0x00,
  0xa4, 0x11, 0x00, 0x00, 0x94, 0x0f, 0x00, 0x00, 0x84, 0x03, 0x00, 0x00,
  0x6c, 0x03, 0x00, 0x00, 0x1c, 0x01, 0x00, 0x00, 0xcc, 0x00, 0x00, 0x00,
  0xc4, 0x00, 0x00, 0x00, 0xbc, 0x00, 0x00, 0x00, 0xb4, 0x00, 0x00, 0x00,
  0xac, 0x00, 0x00, 0x00, 0xa4, 0x00, 0x00, 0x00, 0x9c, 0x00, 0x00, 0x00,
  0x94, 0x00, 0x00, 0x00, 0x74, 0x00, 0x00, 0x00, 0x04, 0x00, 0x00, 0x00,
  0x4e, 0xb4, 0xff, 0xff, 0x04, 0x00, 0x00, 0x00, 0x60, 0x00, 0x00, 0x00,
  0x10, 0x00, 0x00, 0x00, 0x00, 0x00, 0x00, 0x00, 0x08, 0x00, 0x0e, 0x00,
  0x08, 0x00, 0x04, 0x00, 0x08, 0x00, 0x00, 0x00, 0x10, 0x00, 0x00, 0x00,
  0x24, 0x00, 0x00, 0x00, 0x00, 0x00, 0x06, 0x00, 0x08, 0x00, 0x04, 0x00,
  0x06, 0x00, 0x00, 0x00, 0x04, 0x00, 0x00, 0x00, 0x00, 0x00, 0x00, 0x00,
  0x0c, 0x00, 0x18, 0x00, 0x14, 0x00, 0x10, 0x00, 0x0c, 0x00, 0x04, 0x00,
  0x0c, 0x00, 0x00, 0x00, 0x88, 0xeb, 0x05, 0x0a, 0xf4, 0xe0, 0x8d, 0x60,
  0x02, 0x00, 0x00, 0x00, 0x02, 0x00, 0x00, 0x00, 0x04, 0x00, 0x00, 0x00,
  0x06, 0x00, 0x00, 0x00, 0x32, 0x2e, 0x32, 0x30, 0x2e, 0x30, 0x00, 0x00,
  0xba, 0xb4, 0xff, 0xff, 0x04, 0x00, 0x00, 0x00, 0x10, 0x00, 0x00, 0x00,
  0x31, 0x2e, 0x36, 0x2e, 0x30, 0x00, 0x00, 0x00, 0x00, 0x00, 0x00, 0x00,
  0x00, 0x00, 0x00, 0x00, 0xe8, 0xaa, 0xff, 0xff, 0xec, 0xaa, 0xff, 0xff,
  0xf0, 0xaa, 0xff, 0xff, 0xf4, 0xaa, 0xff, 0xff, 0xf8, 0xaa, 0xff, 0xff,
  0xfc, 0xaa, 0xff, 0xff, 0x00, 0xab, 0xff, 0xff, 0xf2, 0xb4, 0xff, 0xff,
  0x04, 0x00, 0x00, 0x00, 0x40, 0x00, 0x00, 0x00, 0xb8, 0x94, 0x86, 0x3e,
  0x96, 0xf0, 0x1e, 0x3d, 0xed, 0x07, 0x63, 0x3f, 0xda, 0x38, 0x64, 0xbd,
  0x39, 0xa5, 0x5f, 0x3e, 0xe6, 0xa6, 0x4b, 0xbd, 0xd1, 0xe9, 0x15, 0x3c,
  0xc4, 0x19, 0x14, 0x3f, 0xb4, 0x2e, 0x49, 0x3e, 0xf6, 0x66, 0xb5, 0xbd,
  0x9f, 0x2a, 0x87, 0xbd, 0x14, 0x46, 0x0d, 0xbd, 0x6d, 0x68, 0x81, 0x3d,
  0x8a, 0x58, 0x80, 0x3e, 0x2a, 0x07, 0x51, 0x3e, 0xea, 0x25, 0x49, 0x3d,
  0x3e, 0xb5, 0xff, 0xff, 0x04, 0x00, 0x00, 0x00, 0x40, 0x02, 0x00, 0x00,
  0x5e, 0xaa, 0xc7, 0xbe, 0x71, 0x58, 0xa5, 0xbe, 0x4b, 0xc2, 0x11, 0xbe,
  0x59, 0xdf, 0x59, 0xbe, 0x85, 0x39, 0x51, 0xbe, 0x1e, 0xe9, 0x18, 0xbe,
  0x89, 0x40, 0xd6, 0xbe, 0x89, 0xe8, 0x2e, 0xbe, 0xcf, 0x12, 0x8b, 0xbe,
  0xc3, 0xcf, 0x76, 0x3e, 0xa9, 0x34, 0x91, 0x3e, 0xf1, 0x42, 0xdd, 0x3e,
  0x4e, 0xa4, 0x05, 0x3f, 0xdb, 0x0d, 0xc1, 0x3e, 0xfb, 0x1f, 0xd8, 0x3e,
  0xd2, 0x1a, 0x4d, 0x3d, 0x70, 0xc3, 0x4f, 0xbe, 0x49, 0xbf, 0x2e, 0x3e,
  0x45, 0x56, 0xc9, 0x3e, 0xa3, 0x9c, 0x5d, 0x3e, 0x98, 0x3b, 0x1b, 0xbe,
  0xc4, 0x30, 0x5a, 0x3e, 0x2b, 0x03, 0xa6, 0x3e, 0x6e, 0xff, 0x68, 0xbe,
  0xc5, 0x08, 0xe7, 0x3e, 0xd5, 0xed, 0xe7, 0x3e, 0xd1, 0xc8, 0xaf, 0xbb,
  0x3f, 0x34, 0x83, 0xbe, 0x37, 0x5a, 0xc1, 0xbd, 0xff, 0x39, 0x52, 0x3e,
  0xca, 0xe7, 0xad, 0xbe, 0xbf, 0x3b, 0xf1, 0xbd, 0xc4, 0xfe, 0xba, 0x3e,
  0xd0, 0x1d, 0xcc, 0xbe, 0x66, 0xf8, 0x26, 0xbe, 0x71, 0xfe, 0x84, 0x3e,
  0x9d, 0x80, 0xcf, 0xbe, 0x28, 0x32, 0xae, 0x3e, 0x44, 0xc2, 0x54, 0xbe,
  0xe6, 0xc8, 0xca, 0xbe, 0x28, 0x40, 0x47, 0x3e, 0x3e, 0x9f, 0x8e, 0xbe,
  0x22, 0x9a, 0xe1, 0xbe, 0x89, 0xc3, 0xd4, 0x3e, 0xc7, 0x18, 0x85, 0xbe,
  0xad, 0xb0, 0x45, 0xbf, 0xe4, 0xbc, 0x6d, 0x3e, 0x5c, 0x43, 0xe4, 0xbe,
  0xc7, 0x83, 0xa4, 0xbe, 0xf7, 0x5b, 0xcf, 0xbd, 0xae, 0x9a, 0x24, 0x3d,
  0x79, 0xa4, 0xa3, 0xbe, 0xe6, 0x44, 0x34, 0xbe, 0x6c, 0x60, 0x56, 0x3e,
  0x75, 0xc1, 0xee, 0xbc, 0xaf, 0x90, 0x8e, 0x3e, 0x60, 0x50, 0x2c, 0x3d,
  0x94, 0x1e, 0x83, 0x3e, 0x5a, 0xa5, 0x79, 0xbe, 0x6f, 0x70, 0x9b, 0xbe,
  0x30, 0xbe, 0x5d, 0xbe, 0x85, 0xab, 0x8f, 0xbc, 0x7d, 0x4b, 0x99, 0x3e,
  0x07, 0xb9, 0xa7, 0x3e, 0xbf, 0xcb, 0x95, 0x3e, 0x7e, 0x92, 0x1d, 0x3f,
  0xdf, 0x46, 0xbc, 0x3e, 0xc7, 0xce, 0xd3, 0xbd, 0x89, 0xd8, 0x85, 0x3e,
  0xe3, 0xad, 0xe7, 0xbe, 0x38, 0xae, 0xfb, 0xbd, 0xfb, 0x82, 0x5e, 0xbd,
  0xfe, 0xca, 0x88, 0xbe, 0x0e, 0xbc, 0x1f, 0xbd, 0xa9, 0x17, 0x9c, 0xbe,
  0x83, 0xc3, 0xc1, 0xbe, 0xf9, 0xea, 0xa7, 0xbe, 0xfc, 0x84, 0xa5, 0xbe,
  0xcc, 0xd3, 0xe5, 0xbd, 0x06, 0x53, 0xb5, 0xbe, 0x8e, 0xd7, 0x5d, 0xbe,
  0x58, 0x88, 0x98, 0xbd, 0x0b, 0x7f, 0xb3, 0x3e, 0x22, 0x59, 0xf9, 0x3e,
  0x8a, 0x19, 0xd0, 0xbd, 0x1c, 0xd5, 0xaa, 0x3e, 0x0e, 0x28, 0xae, 0x3e,
  0x61, 0x0c, 0x3c, 0xbe, 0xaa, 0x47, 0x81, 0x3e, 0xb6, 0xf9, 0x07, 0x3f,
  0x27, 0xc3, 0x1e, 0x3d, 0x3f, 0x04, 0xaa, 0x3e, 0x17, 0x9b, 0x98, 0x3e,
  0x0d, 0xaa, 0x5b, 0x3e, 0x7d, 0xa7, 0xa1, 0x3e, 0x1c, 0x32, 0x9c, 0x3e,
  0xea, 0xd5, 0xac, 0x3e, 0x2c, 0x9c, 0xb8, 0x3e, 0x76, 0x1c, 0x85, 0x3e,
  0xe2, 0xe0, 0xd3, 0xbd, 0xcc, 0xa0, 0x15, 0x3e, 0x73, 0xc5, 0xd1, 0x3e,
  0xa3, 0x95, 0x94, 0xbe, 0x06, 0xc1, 0x3d, 0x3e, 0xc6, 0xb0, 0xa2, 0x3e,
  0x31, 0x6c, 0x5f, 0xbe, 0x22, 0x47, 0x18, 0x3e, 0xa6, 0x0f, 0xce, 0x3e,
  0x4b, 0x6d, 0x60, 0xbe, 0x92, 0xeb, 0x23, 0xbe, 0xa1, 0x50, 0xaa, 0x3e,
  0x08, 0x53, 0xb5, 0xbe, 0xde, 0x65, 0x53, 0xbd, 0x66, 0xea, 0x98, 0x3e,
  0xed, 0xa9, 0xe4, 0xbe, 0x18, 0xe5, 0x9c, 0xbd, 0x87, 0x25, 0x0a, 0x3e,
  0x37, 0x6c, 0xd9, 0xbe, 0xd3, 0x0a, 0x04, 0xbf, 0x5d, 0xbe, 0x88, 0xbd,
  0x3f, 0x97, 0x04, 0xbf, 0x50, 0xfb, 0xbb, 0xbe, 0xab, 0x26, 0xd8, 0xbe,
  0xa6, 0xfd, 0xef, 0xbe, 0xe6, 0x71, 0x81, 0xbe, 0xfb, 0x97, 0x37, 0xbf,
  0xf9, 0xa2, 0x0b, 0x3f, 0xb6, 0x66, 0x70, 0xbe, 0xe5, 0x87, 0x00, 0xbf,
  0x3e, 0x4c, 0xab, 0x3e, 0xff, 0xbe, 0x83, 0xbe, 0x35, 0x9a, 0xd7, 0xbe,
  0x1e, 0x67, 0x0d, 0x3f, 0x32, 0x23, 0xef, 0xbd, 0xb1, 0xfd, 0x87, 0xbe,
  0xb6, 0x75, 0x56, 0x3e, 0xd9, 0x68, 0x77, 0xbe, 0xbd, 0x55, 0x81, 0x3e,
  0x39, 0x10, 0xf6, 0x3e, 0x8e, 0xed, 0xae, 0xbd, 0xac, 0x81, 0x1b, 0x3e,
  0x85, 0xad, 0x84, 0x3e, 0xfb, 0x6d, 0x8a, 0xbe, 0x06, 0x5e, 0x8a, 0x3e,
  0x8a, 0xb7, 0xff, 0xff, 0x04, 0x00, 0x00, 0x00, 0x08, 0x00, 0x00, 0x00,
  0x01, 0x00, 0x00, 0x00, 0x02, 0x00, 0x00, 0x00, 0x9e, 0xb7, 0xff, 0xff,
  0x04, 0x00, 0x00, 0x00, 0x00, 0x0c, 0x00, 0x00, 0xe0, 0xf8, 0xc2, 0x3e,
  0xc3, 0x99, 0x19, 0x3f, 0x32, 0x2e, 0xd6, 0xbe, 0xa9, 0x3b, 0xf7, 0xbe,
  0x68, 0x0d, 0x0f, 0x3f, 0x5e, 0x94, 0x60, 0x3e, 0xd5, 0x50, 0xd0, 0x3e,
  0xbb, 0xcc, 0xcf, 0xbe, 0xcd, 0x02, 0xa0, 0x3d, 0x55, 0x19, 0xd3, 0x3e,
  0x4d, 0x03, 0x74, 0x3e, 0xd7, 0x9e, 0x96, 0xbc, 0x6b, 0x6c, 0xea, 0xbd,
  0x46, 0xcb, 0x88, 0xbc, 0xa8, 0xd8, 0x39, 0xbe, 0x01, 0x9b, 0x4d, 0x3e,
  0xf2, 0x73, 0x0d, 0x3f, 0xac, 0x44, 0xf6, 0xbe, 0x4d, 0xb1, 0xec, 0x3e,
  0x24, 0x4b, 0xd4, 0x3e, 0x0c, 0x11, 0x15, 0x3f, 0x60, 0x29, 0x26, 0x3f,
  0x79, 0x5b, 0x31, 0x3e, 0x1b, 0x93, 0xfa, 0xbe, 0xcc, 0x2f, 0xbf, 0x3e,
  0x31, 0xa4, 0xd8, 0xbd, 0xc2, 0x89, 0xa3, 0xbe, 0xfd, 0x2d, 0xc9, 0xbe,
  0x62, 0x46, 0x19, 0x3d, 0xb4, 0xa9, 0xec, 0x3d, 0xcf, 0x14, 0x64, 0xbe,
  0x3b, 0xbf, 0x4e, 0xbe, 0xa9, 0xa1, 0x7b, 0x3e, 0xb3, 0xcd, 0x0d, 0x3e,
  0xc1, 0xf4, 0x85, 0x3d, 0x1f, 0x7b, 0xb2, 0x3e, 0x80, 0x1e, 0x05, 0x3c,
  0x57, 0x5e, 0x4e, 0xba, 0xbe, 0x1b, 0x83, 0x3e, 0xcb, 0x90, 0x99, 0xbe,
  0xbe, 0x3f, 0xaa, 0x3e, 0xcc, 0x96, 0x30, 0xbe, 0x3d, 0xc8, 0x48, 0x3f,
  0x6c, 0x66, 0xe6, 0x3d, 0x4f, 0xd1, 0xba, 0x3e, 0x43, 0x1b, 0x32, 0xbd,
  0xf3, 0xbd, 0x94, 0x3d, 0xb0, 0x09, 0x1d, 0x3e, 0xca, 0x8b, 0x96, 0x3e,
  0x67, 0x6f, 0x4a, 0xbf, 0xf3, 0x94, 0xac, 0x3e, 0xa2, 0x92, 0x4a, 0x3d,
  0x98, 0xbb, 0x49, 0xbc, 0xf8, 0xb2, 0xf4, 0x3d, 0x55, 0xf1, 0x37, 0xbe,
  0xfd, 0x89, 0x9d, 0x3d, 0x0a, 0x1c, 0x77, 0xbe, 0x73, 0x6e, 0x11, 0x3f,
  0xdf, 0x12, 0x69, 0xbe, 0x0c, 0x33, 0xc0, 0x3d, 0x03, 0x50, 0x63, 0x3e,
  0xd2, 0xf1, 0x28, 0xbe, 0xcb, 0x37, 0xbb, 0x3e, 0x04, 0x52, 0x08, 0xbe,
  0x1f, 0xbd, 0x97, 0x3e, 0x52, 0x21, 0x36, 0x3f, 0xed, 0xad, 0xa5, 0x3e,
  0xbc, 0xf0, 0x5c, 0x3e, 0xec, 0xc6, 0x00, 0xbf, 0xcf, 0xb0, 0x14, 0xbf,
  0xdc, 0x68, 0x06, 0xbf, 0xa2, 0x37, 0x0b, 0x3f, 0x65, 0x56, 0x90, 0x3e,
  0x84, 0x67, 0x92, 0xbe, 0xc7, 0xd5, 0x86, 0xbd, 0xa5, 0xba, 0x86, 0xbe,
  0x41, 0x06, 0xcb, 0x3c, 0x56, 0x03, 0x99, 0x3e, 0x26, 0x95, 0x3f, 0x3e,
  0xe5, 0x2b, 0xc8, 0x3e, 0xd8, 0xdd, 0x12, 0x3e, 0xef, 0x83, 0x10, 0x3e,
  0x45, 0x71, 0x1a, 0xbe, 0x85, 0xe5, 0xbe, 0x3e, 0x6e, 0x65, 0xa3, 0x3d,
  0x9c, 0x2a, 0xf5, 0x3c, 0x6b, 0xee, 0xb3, 0x3e, 0xdc, 0x0e, 0x7c, 0xbe,
  0x08, 0x7f, 0xde, 0x3e, 0x8c, 0x7b, 0x28, 0x3d, 0xce, 0x6d, 0x3d, 0x3f,
  0x0c, 0xe3, 0xa1, 0xbe, 0x48, 0x11, 0x84, 0x3e, 0x41, 0x0c, 0x8c, 0xbe,
  0x25, 0x87, 0xaf, 0xbe, 0x48, 0x19, 0x8d, 0x3e, 0xb3, 0x9c, 0xca, 0xbc,
  0x2d, 0x48, 0xcf, 0xbd, 0x5b, 0x32, 0x30, 0x3e, 0x06, 0xae, 0x81, 0x3e,
  0x77, 0x3e, 0x6f, 0x3e, 0x9b, 0xbe, 0x64, 0xbe, 0xb6, 0xce, 0x89, 0x3e,
  0xce, 0xbb, 0x43, 0x3e, 0x36, 0x02, 0x87, 0xbe, 0x18, 0xab, 0x8d, 0xbe,
  0xd4, 0xe3, 0x12, 0xbe, 0xba, 0xd2, 0xb6, 0xbd, 0xfe, 0x9c, 0x6c, 0xbe,
  0x51, 0x9f, 0x01, 0x3e, 0xfa, 0xaf, 0x09, 0xbe, 0xc9, 0xe6, 0x10, 0xbd,
  0xa4, 0x40, 0x26, 0x3e, 0x08, 0xdb, 0xbb, 0xbc, 0x40, 0xf6, 0x52, 0xbd,
  0xe2, 0xe6, 0x1b, 0xbe, 0x92, 0x08, 0x01, 0xbc, 0x08, 0x12, 0x87, 0xbe,
  0xd7, 0x44, 0x94, 0xbe, 0x02, 0x1f, 0x9b, 0xbe, 0xf8, 0xb1, 0x68, 0xbf,
  0xd2, 0x3f, 0x71, 0x3e, 0x7f, 0x8c, 0xd8, 0x3d, 0x95, 0x88, 0x48, 0x3e,
  0xcd, 0x65, 0xbb, 0x3e, 0x2f, 0xdb, 0x8e, 0xbc, 0x2f, 0x94, 0x1e, 0x3e,
  0x08, 0xdd, 0x65, 0x3d, 0x0d, 0xe9, 0x1e, 0x3e, 0x03, 0xa1, 0xce, 0xbe,
  0x56, 0x81, 0x85, 0x3e, 0x47, 0x73, 0xdc, 0xbe, 0x1c, 0xa6, 0x2e, 0x3d,
  0xea, 0xdc, 0xd1, 0x3e, 0x31, 0xef, 0x14, 0xbf, 0xbf, 0x4a, 0xfe, 0x3d,
  0xe0, 0x07, 0x89, 0xbe, 0xf4, 0x44, 0xf5, 0xbe, 0xc1, 0xd5, 0xf1, 0xbe,
  0x6d, 0x27, 0x4b, 0x3e, 0x86, 0x73, 0xdd, 0x3e, 0x23, 0x92, 0x95, 0x3e,
  0x70, 0x18, 0xf5, 0x3d, 0x29, 0x37, 0x88, 0xbe, 0xab, 0x3e, 0x0c, 0xbf,
  0xca, 0xd0, 0xb0, 0x3e, 0x9a, 0x9a, 0xf6, 0xbd, 0x14, 0x6a, 0x48, 0x3c,
  0xd2, 0x67, 0x71, 0x3e, 0xa6, 0x3c, 0x91, 0x3d, 0xfc, 0x4d, 0xc8, 0x3e,
  0x15, 0x02, 0xbf, 0x3c, 0xc0, 0x7c, 0x1f, 0x3e, 0x41, 0x2d, 0xbe, 0xbe,
  0xc2, 0x9d, 0xaf, 0x3d, 0xe9, 0x73, 0x8d, 0x3e, 0xe8, 0xba, 0x19, 0xbe,
  0x84, 0xae, 0x8e, 0x3e, 0xbe, 0x31, 0x7f, 0xbe, 0x27, 0xbd, 0x17, 0x3f,
  0xb5, 0xcd, 0x2c, 0x3e, 0x67, 0x80, 0x0d, 0xbf, 0xb1, 0xe0, 0xc5, 0xbd,
  0xb1, 0xfc, 0x03, 0x3e, 0x80, 0xa8, 0xa3, 0x3e, 0xf4, 0xec, 0xa6, 0x3e,
  0x6c, 0x04, 0x30, 0x3e, 0x73, 0xd3, 0xb8, 0xbe, 0xd3, 0x30, 0x82, 0xbe,
  0x7f, 0xd6, 0x37, 0x3f, 0xbf, 0x4c, 0x78, 0xbe, 0x89, 0xe7, 0xe9, 0xbd,
  0xeb, 0xc9, 0x12, 0x3f, 0x1a, 0x53, 0x33, 0x3e, 0x79, 0xc6, 0xe7, 0x3e,
  0x4b, 0x2b, 0xb0, 0xbe, 0x2a, 0xcf, 0xaa, 0x3e, 0xc3, 0x50, 0x35, 0x3d,
  0xa6, 0xeb, 0x84, 0x3e, 0xcd, 0x42, 0x5e, 0xbe, 0x9b, 0x8e, 0x34, 0xbd,
  0x45, 0x0e, 0xce, 0x3c, 0xc7, 0xb0, 0x13, 0xbf, 0xfe, 0x17, 0x2d, 0x3f,
  0x0c, 0xb7, 0x22, 0x3e, 0x98, 0x85, 0x2b, 0xbf, 0x83, 0x02, 0xd2, 0xbd,
  0x7d, 0x6e, 0x4e, 0xbd, 0x9e, 0x7d, 0xf9, 0x3e, 0xcf, 0xf8, 0x17, 0x3f,
  0xf5, 0x87, 0x2e, 0x3f, 0x36, 0x71, 0x18, 0xbe, 0x02, 0x34, 0x83, 0x3e,
  0xf8, 0xed, 0x59, 0xbe, 0x67, 0xb4, 0x86, 0xbe, 0xd0, 0xd8, 0x89, 0xbd,
  0xcf, 0xf8, 0xa9, 0xbd, 0xf1, 0x87, 0x0f, 0x3e, 0x51, 0xc4, 0x89, 0xbe,
  0x0d, 0x0b, 0x96, 0x3d, 0x30, 0xb9, 0x91, 0xbd, 0xaa, 0x34, 0xcc, 0x3c,
  0xfe, 0x52, 0xff, 0x3d, 0x3d, 0x35, 0x83, 0xbe, 0xc6, 0x83, 0xac, 0xbe,
  0x80, 0x7a, 0x65, 0x3e, 0x4f, 0xd3, 0xa7, 0x3d, 0xbf, 0xfc, 0xb8, 0x3d,
  0x13, 0xe9, 0x89, 0xbe, 0xa4, 0x8e, 0x7b, 0xbc, 0xaf, 0xd0, 0x25, 0x3e,
  0x03, 0x6d, 0x8a, 0xbe, 0x61, 0xa8, 0xf9, 0x3c, 0xd5, 0xdb, 0x99, 0xbe,
  0x8c, 0xec, 0xa4, 0xbe, 0x70, 0xdd, 0x12, 0x3e, 0x3e, 0xe6, 0x91, 0xbf,
  0xa6, 0xb6, 0x0d, 0x3e, 0xf2, 0x2c, 0x6b, 0x3e, 0xd4, 0x50, 0x0e, 0x3f,
  0xb7, 0x34, 0x70, 0x3e, 0x9d, 0x0f, 0xd3, 0x3e, 0x53, 0x70, 0xac, 0xbc,
  0x17, 0x11, 0x84, 0x3e, 0xea, 0x48, 0xa5, 0x3e, 0x86, 0xb4, 0x34, 0xbf,
  0xd8, 0x46, 0xfb, 0xbd, 0x2f, 0x03, 0xd6, 0xbe, 0x94, 0xf6, 0xd3, 0xba,
  0xe6, 0x77, 0xcb, 0xbd, 0x96, 0x55, 0x47, 0xbe, 0xff, 0x67, 0xcb, 0x3e,
  0x41, 0x82, 0x5b, 0xbf, 0x1a, 0x46, 0x45, 0x3e, 0xc6, 0xc4, 0x78, 0xbf,
  0xaa, 0x62, 0xa4, 0x3e, 0xbe, 0xf8, 0x51, 0xbe, 0xa3, 0xea, 0x3d, 0xbe,
  0x17, 0x70, 0xd7, 0xbd, 0xae, 0xfe, 0x35, 0x3e, 0x01, 0xcf, 0xb7, 0x3e,
  0x4f, 0xbd, 0xed, 0x3e, 0x0e, 0x4e, 0x12, 0xbf, 0xb9, 0x86, 0x32, 0xbe,
  0x22, 0xf9, 0xf6, 0x3e, 0x87, 0xc9, 0x0d, 0xbe, 0x60, 0x29, 0xee, 0xbd,
  0xcc, 0x2f, 0x6b, 0xbe, 0xa6, 0xa0, 0x78, 0xbd, 0xe5, 0x15, 0x88, 0xbe,
  0x18, 0xc6, 0xe4, 0x3e, 0x24, 0x2e, 0xc8, 0xbe, 0x95, 0x70, 0xb0, 0x3e,
  0x6a, 0xe2, 0x8f, 0x3e, 0x1c, 0x54, 0xb3, 0xbd, 0x5b, 0x37, 0xf2, 0xbb,
  0x3b, 0xe1, 0x12, 0x3d, 0x54, 0x96, 0x70, 0xbe, 0x81, 0x16, 0x33, 0x3e,
  0x3e, 0xcb, 0xea, 0x3d, 0xb8, 0xe6, 0x1c, 0x3f, 0x4d, 0x8c, 0x00, 0x3f,
  0x84, 0x8d, 0xc8, 0x3e, 0xaa, 0x4d, 0xde, 0xbd, 0x92, 0x50, 0x7b, 0xbe,
  0xd9, 0x98, 0x9c, 0xbd, 0xf3, 0x2f, 0xd7, 0x3d, 0xe1, 0xb5, 0x55, 0xbd,
  0x66, 0xef, 0x1d, 0x3d, 0x24, 0x24, 0x60, 0xbe, 0x6d, 0x17, 0x17, 0xbe,
  0x63, 0x9d, 0x56, 0x3e, 0x14, 0x24, 0x49, 0xbe, 0xe8, 0x7e, 0xaf, 0x3d,
  0xe5, 0x73, 0x6f, 0xbe, 0xe7, 0x69, 0xec, 0x3d, 0xff, 0xea, 0x80, 0x3e,
  0xb1, 0x75, 0x8f, 0xbd, 0xfe, 0xc9, 0x4d, 0xbe, 0x75, 0x14, 0x73, 0x3e,
  0x82, 0x7e, 0x92, 0xbe, 0x60, 0x15, 0xed, 0xbd, 0xfa, 0xec, 0x98, 0x3e,
  0x67, 0xac, 0x91, 0x3e, 0x94, 0x13, 0x14, 0x3d, 0x79, 0xcb, 0x04, 0xbe,
  0xa6, 0xff, 0x0d, 0xbe, 0x05, 0x24, 0x3f, 0xbe, 0x55, 0xe4, 0x2d, 0x3f,
  0x6c, 0x76, 0xf1, 0xbe, 0xca, 0x68, 0x0b, 0x3e, 0x00, 0xa7, 0x9a, 0x3e,
  0xc5, 0xd1, 0x66, 0xbe, 0x4d, 0x03, 0x84, 0x3d, 0x64, 0x86, 0xb6, 0xbe,
  0x47, 0xb3, 0x13, 0xbc, 0xbb, 0x23, 0x3e, 0xbe, 0x04, 0xd0, 0x12, 0x3f,
  0xca, 0xf3, 0x58, 0x3e, 0x55, 0xbf, 0xef, 0x3e, 0xc3, 0x50, 0x70, 0x3d,
  0x86, 0x61, 0xf5, 0x3d, 0x38, 0x3f, 0xbd, 0x3e, 0x7c, 0x00, 0xd3, 0xbe,
  0x43, 0xd7, 0xf3, 0x3e, 0x96, 0x85, 0x99, 0x3e, 0x17, 0x48, 0xde, 0x3e,
  0x76, 0x18, 0x58, 0x3d, 0xb2, 0xec, 0x8a, 0xbe, 0x5a, 0xb0, 0xb7, 0xbe,
  0xd8, 0xe4, 0x83, 0xbe, 0xf9, 0x6d, 0x4b, 0x3e, 0xbf, 0x79, 0x5a, 0xbe,
  0x13, 0x2b, 0x40, 0xbe, 0xb1, 0x2d, 0xff, 0x3d, 0x08, 0x19, 0xf2, 0xbc,
  0xec, 0x70, 0xee, 0x3d, 0xf8, 0x58, 0x27, 0x3d, 0xfe, 0x3b, 0x6d, 0xbc,
  0xbd, 0x98, 0x88, 0xbe, 0x33, 0xe7, 0x92, 0x3d, 0x50, 0x19, 0xa3, 0xbc,
  0x66, 0xeb, 0x61, 0xbe, 0xc6, 0x31, 0x69, 0x3d, 0x26, 0xf4, 0x66, 0x3e,
  0x74, 0x39, 0xb3, 0xbd, 0xce, 0xf2, 0x52, 0xbe, 0xef, 0x6a, 0xb7, 0xbd,
  0xe4, 0xa0, 0xbb, 0x3c, 0x28, 0x45, 0x5b, 0xbd, 0x23, 0x51, 0x6b, 0x3e,
  0x85, 0xed, 0x14, 0x3e, 0x85, 0xea, 0x86, 0x3c, 0xc6, 0xd9, 0x60, 0xbe,
  0x71, 0x58, 0xd2, 0xbd, 0x63, 0x18, 0x17, 0xbe, 0x18, 0x47, 0x8e, 0x3f,
  0x66, 0x7e, 0xd8, 0xbd, 0x3b, 0x70, 0xd6, 0x3e, 0x3b, 0x4b, 0x0d, 0x3e,
  0x4b, 0x31, 0x0b, 0x3e, 0xa5, 0x63, 0x50, 0xbe, 0x14, 0x36, 0x97, 0xbe,
  0x67, 0x7d, 0xca, 0x3d, 0xfc, 0x57, 0x94, 0xbe, 0x0c, 0xa2, 0x13, 0x3f,
  0x2e, 0x6c, 0x19, 0x3e, 0x3b, 0x9f, 0xad, 0xbd, 0x72, 0xaf, 0xe8, 0x3c,
  0xaf, 0x3f, 0x91, 0x3d, 0x2b, 0x11, 0x4e, 0x3f, 0x49, 0xee, 0x8e, 0xbe,
  0x35, 0xd0, 0x00, 0x3f, 0x23, 0x34, 0xfa, 0x3e, 0x7f, 0x23, 0x9e, 0x3e,
  0x32, 0x9d, 0xf3, 0xbc, 0x0a, 0x55, 0x40, 0xbe, 0xd0, 0x89, 0x58, 0xbe,
  0x48, 0xc8, 0x07, 0xbe, 0x81, 0x56, 0x5c, 0x3e, 0x3f, 0xb6, 0x4e, 0xbd,
  0x99, 0x28, 0xd8, 0x3d, 0x09, 0x13, 0x50, 0x3b, 0x45, 0xed, 0x98, 0x3e,
  0x76, 0x8d, 0x6d, 0xbe, 0x5d, 0x62, 0x39, 0xbe, 0xef, 0xb0, 0x92, 0x3e,
  0xe1, 0x07, 0x3e, 0xbe, 0x3f, 0xa9, 0xed, 0x3d, 0xe8, 0x6a, 0x07, 0x3e,
  0xc7, 0x0b, 0x8b, 0xbe, 0xe0, 0xbe, 0xd7, 0x3d, 0x06, 0x1a, 0x98, 0xbe,
  0x36, 0x10, 0xa0, 0xbd, 0x7e, 0xf0, 0x6e, 0xbe, 0xec, 0xd6, 0xb1, 0x3d,
  0x2a, 0x58, 0x87, 0xbe, 0xb7, 0x7a, 0xd2, 0x3c, 0x36, 0x88, 0x90, 0xbe,
  0xe2, 0x24, 0x40, 0xbe, 0x6b, 0xaa, 0x30, 0x3e, 0xe1, 0xbe, 0x4c, 0x3e,
  0x1c, 0xb1, 0x42, 0xbe, 0x78, 0x84, 0x9e, 0x3d, 0x73, 0x9b, 0x89, 0xbd,
  0xf8, 0xb8, 0x01, 0xbe, 0x4d, 0x3e, 0xdf, 0x3d, 0x6e, 0xfd, 0x8f, 0x3e,
  0x9c, 0x6d, 0x1c, 0x3e, 0xf1, 0x71, 0x2b, 0xbd, 0x10, 0xb1, 0x78, 0xbe,
  0x1a, 0x83, 0xd4, 0xbc, 0x08, 0xf4, 0x39, 0x3d, 0x9a, 0xc6, 0x6f, 0xbe,
  0xd2, 0xd6, 0x89, 0xbe, 0xce, 0x52, 0xeb, 0xbd, 0x8f, 0xb2, 0x8d, 0x3e,
  0xec, 0xd1, 0x8c, 0xbe, 0x8d, 0x9c, 0xd6, 0x3d, 0x5a, 0xe6, 0x3f, 0xbd,
  0xdd, 0x0d, 0x49, 0x3e, 0x75, 0x4b, 0xc0, 0x3d, 0x59, 0x49, 0x64, 0x3e,
  0x51, 0x66, 0xa9, 0x3d, 0xea, 0x07, 0x57, 0x3e, 0x3c, 0xeb, 0x70, 0xbe,
  0x0a, 0x85, 0xcf, 0xbd, 0xa2, 0x03, 0xa1, 0xbd, 0x20, 0x3d, 0x7e, 0x3e,
  0xe0, 0xec, 0x85, 0x3e, 0x22, 0xc3, 0xf6, 0xbe, 0x02, 0x6d, 0x59, 0xbe,
  0xa5, 0x0c, 0x94, 0x3e, 0x3c, 0x2e, 0xe0, 0xbe, 0xc6, 0xa4, 0x91, 0x3e,
  0x36, 0x7d, 0xd3, 0xbe, 0x56, 0x89, 0xc1, 0x3d, 0x68, 0x42, 0xfb, 0x3e,
  0x2e, 0x3b, 0xd4, 0x3e, 0xcd, 0x54, 0x49, 0xbe, 0x7f, 0xd9, 0xa7, 0xbd,
  0xe8, 0x5b, 0x9b, 0x3e, 0xf2, 0xec, 0x2f, 0xbd, 0xac, 0x82, 0xa1, 0x3e,
  0x85, 0xaa, 0xa8, 0x3e, 0xda, 0x14, 0x8b, 0xbe, 0xf3, 0x80, 0x47, 0x3f,
  0xd5, 0xea, 0x87, 0x3d, 0x5c, 0x10, 0x29, 0x3f, 0xf5, 0x5f, 0x2b, 0x3f,
  0x51, 0x9f, 0x4a, 0x3e, 0x59, 0xd9, 0x28, 0xbe, 0x5d, 0x78, 0x2d, 0x3e,
  0xc1, 0xd2, 0x55, 0xbe, 0x48, 0x73, 0xa7, 0xbe, 0x0a, 0xbc, 0x3e, 0x3c,
  0x08, 0xc2, 0xb8, 0xbd, 0x22, 0x60, 0x8e, 0x3e, 0x90, 0xb6, 0x2f, 0x3e,
  0xf2, 0xa5, 0x04, 0xbe, 0x84, 0x6d, 0xcc, 0xbd, 0x7f, 0x0a, 0x51, 0xbe,
  0x48, 0x2d, 0x89, 0x3e, 0x3e, 0x2d, 0x3d, 0xbe, 0x1f, 0xb1, 0x3f, 0x3e,
  0xa8, 0x2e, 0x8d, 0xbe, 0xc5, 0xa9, 0x62, 0x3e, 0xf7, 0x11, 0x8b, 0x3e,
  0xd5, 0x8d, 0xfb, 0xbd, 0x36, 0xce, 0x43, 0xbd, 0x2f, 0xe7, 0xc2, 0xbc,
  0x32, 0xa1, 0x82, 0xbe, 0xb2, 0x58, 0x8a, 0x3d, 0x9d, 0x1b, 0x6f, 0x3e,
  0x1f, 0x76, 0x67, 0xbe, 0x88, 0x72, 0xb0, 0x3d, 0x86, 0x08, 0xc2, 0x3e,
  0xf9, 0x32, 0x0f, 0xbf, 0xf0, 0x5d, 0x82, 0x3e, 0x64, 0xc5, 0x77, 0x3d,
  0x00, 0xea, 0x93, 0xbe, 0x3f, 0x87, 0xfd, 0xbc, 0x37, 0xb7, 0xc6, 0xbe,
  0x60, 0xe1, 0xd5, 0x3e, 0x88, 0x51, 0x0d, 0xbe, 0x30, 0xa2, 0x28, 0x3e,
  0x4b, 0xae, 0xd1, 0xbe, 0x03, 0x7f, 0x05, 0xbe, 0x5b, 0x7d, 0x57, 0x3e,
  0x71, 0xce, 0xbf, 0x3d, 0x72, 0x4c, 0x16, 0x3f, 0xca, 0xc6, 0x76, 0xbe,
  0xb3, 0x1a, 0x99, 0x3e, 0x75, 0xaa, 0x9d, 0x3e, 0xc5, 0x7c, 0xc1, 0xbe,
  0x81, 0xb4, 0x83, 0x3e, 0x99, 0xef, 0x24, 0x3b, 0xf0, 0x38, 0xe5, 0xbc,
  0x4a, 0x54, 0xc1, 0x3c, 0xa9, 0x0c, 0x10, 0x3f, 0x55, 0x13, 0x9c, 0xbd,
  0x9c, 0xc3, 0x00, 0xbf, 0xf3, 0x11, 0xc6, 0x3e, 0xd7, 0x65, 0x92, 0x3e,
  0x57, 0x35, 0xbd, 0xbd, 0x87, 0x6b, 0x85, 0xbd, 0x2f, 0x96, 0x24, 0x3e,
  0xd2, 0x03, 0xb2, 0x3e, 0xdf, 0x85, 0x1e, 0x3d, 0xe2, 0xc5, 0xf0, 0xbe,
  0xd2, 0x03, 0x51, 0x3d, 0xcf, 0xe9, 0x27, 0xbe, 0x60, 0x0a, 0x84, 0x3e,
  0x3a, 0x5b, 0x7e, 0x3c, 0xf8, 0xc1, 0x5e, 0x3c, 0xeb, 0x6b, 0x50, 0xbe,
  0x37, 0x9c, 0xa3, 0xbe, 0x8c, 0x87, 0x13, 0x3f, 0x8c, 0xad, 0x45, 0xbf,
  0x8c, 0xbe, 0xa1, 0xbe, 0x75, 0x8c, 0x1b, 0xbf, 0x64, 0x18, 0x93, 0xbe,
  0x2e, 0x07, 0x07, 0xbf, 0xb2, 0xa2, 0x83, 0x3d, 0x58, 0xee, 0x8b, 0xbe,
  0xa0, 0x54, 0x99, 0x3e, 0x37, 0xe4, 0x06, 0x3e, 0x66, 0x6b, 0xc7, 0x3d,
  0xf9, 0x8d, 0x64, 0xbe, 0xa0, 0x99, 0x40, 0xbe, 0xc8, 0x25, 0x9b, 0x3e,
  0xac, 0xbc, 0xba, 0x3d, 0x28, 0xf9, 0x2c, 0x3c, 0x07, 0x5a, 0xe3, 0xbc,
  0x2c, 0xa9, 0x04, 0x3e, 0xa0, 0x20, 0x8f, 0xbe, 0xc1, 0xa6, 0x04, 0xbe,
  0xa3, 0x81, 0x1a, 0xbe, 0x21, 0xfe, 0x44, 0x3e, 0x45, 0x7f, 0x84, 0xbe,
  0xc6, 0x25, 0x87, 0x3d, 0xda, 0xb6, 0x30, 0x3e, 0xfa, 0x0b, 0xf5, 0x3d,
  0x82, 0x62, 0x3e, 0xbd, 0xc8, 0xda, 0x5c, 0xbe, 0x62, 0xa8, 0xe0, 0x3c,
  0x86, 0x17, 0x93, 0xbe, 0x40, 0xd1, 0x80, 0xbe, 0x90, 0x73, 0x2a, 0x3f,
  0x4f, 0x64, 0x39, 0xbf, 0x06, 0x94, 0x27, 0x3f, 0x45, 0xe9, 0xb6, 0x3e,
  0x56, 0xc0, 0x09, 0xbe, 0x74, 0x12, 0x3f, 0x3e, 0xd0, 0x0f, 0xe2, 0xbd,
  0x61, 0xbc, 0xa8, 0x3e, 0x0d, 0x53, 0xaa, 0xbd, 0xca, 0xf6, 0x09, 0x3f,
  0xc9, 0x8b, 0xcb, 0xbe, 0x21, 0x1b, 0xbc, 0x3d, 0xba, 0x5f, 0x32, 0x3d,
  0x0f, 0xa9, 0x8b, 0x3e, 0x14, 0xe0, 0x16, 0x3e, 0x90, 0x37, 0x24, 0xbf,
  0x83, 0xe4, 0x00, 0x3f, 0xc0, 0x05, 0x1d, 0x3f, 0xd3, 0xd1, 0x83, 0xbc,
  0xf7, 0x7d, 0x4f, 0x3e, 0x46, 0xd6, 0x07, 0xbf, 0x8e, 0x1d, 0x17, 0xbe,
  0xfb, 0x1b, 0xeb, 0xbe, 0x93, 0x6b, 0xf4, 0x3e, 0x7d, 0x78, 0x1e, 0xbf,
  0x6f, 0xa0, 0xf1, 0x3d, 0x71, 0x60, 0xdb, 0xbe, 0x87, 0xf5, 0xd8, 0xbc,
  0x37, 0x2e, 0x20, 0x3e, 0xca, 0xdf, 0xb1, 0x3d, 0x53, 0x7c, 0xe9, 0xbd,
  0x58, 0x7a, 0x6a, 0xbe, 0xc0, 0x10, 0x81, 0x3e, 0xb2, 0x1b, 0xc1, 0xbe,
  0x6d, 0x42, 0x87, 0x3e, 0xf5, 0xe8, 0x56, 0xbe, 0x5c, 0x98, 0x3d, 0x3e,
  0xf0, 0x7a, 0x5d, 0x3e, 0x31, 0xb5, 0x68, 0xbd, 0x76, 0x2d, 0x2c, 0x3f,
  0x3d, 0x06, 0x7b, 0xbe, 0x39, 0x54, 0xd3, 0xbd, 0x7a, 0xcb, 0x9c, 0xbd,
  0xaf, 0x44, 0x8d, 0x3e, 0x92, 0x0b, 0x4b, 0x3d, 0xe1, 0x6d, 0xb4, 0x3e,
  0x2c, 0xdf, 0x1f, 0x3f, 0x44, 0xee, 0x00, 0xbe, 0xef, 0x8f, 0x4a, 0x3e,
  0x07, 0x7f, 0x17, 0xbe, 0x12, 0xe4, 0x74, 0x3e, 0x67, 0x0d, 0x78, 0x3d,
  0x0b, 0x4d, 0x85, 0x3e, 0x1c, 0xaa, 0x8f, 0x3e, 0xff, 0x43, 0xfb, 0xbd,
  0x33, 0x2d, 0x89, 0xbe, 0x42, 0x2d, 0x7b, 0x3d, 0x61, 0xa1, 0xef, 0xbd,
  0x44, 0x78, 0x32, 0x3d, 0x59, 0x73, 0x75, 0xbe, 0xb2, 0xf5, 0x0a, 0x3e,
  0x81, 0xb5, 0x9d, 0xbe, 0x7c, 0x32, 0x99, 0xbe, 0x12, 0x75, 0x9d, 0xbe,
  0x87, 0xb3, 0x06, 0xbe, 0xf8, 0xf8, 0x5f, 0x3e, 0xb3, 0xa1, 0x4e, 0x3e,
  0x02, 0x37, 0xaa, 0xbe, 0x2a, 0x9a, 0x63, 0xbe, 0x86, 0x35, 0x8a, 0xbd,
  0x60, 0xbc, 0x97, 0xbe, 0x52, 0x35, 0xa9, 0xba, 0xf5, 0xa3, 0x9a, 0xbf,
  0x7c, 0xc3, 0xdf, 0x3d, 0x3b, 0x33, 0x79, 0x3e, 0x5c, 0xb3, 0xe8, 0x3e,
  0x2b, 0x77, 0xbd, 0xbe, 0x81, 0x1d, 0xd0, 0x3e, 0x25, 0xfd, 0x4b, 0x3d,
  0x1a, 0x1e, 0x45, 0x3e, 0x5f, 0x81, 0x19, 0x3e, 0x3e, 0xe8, 0x1c, 0xbf,
  0xc6, 0x27, 0x92, 0x3d, 0x41, 0x14, 0xdb, 0xbc, 0x99, 0xbc, 0xaf, 0x3c,
  0x3b, 0x90, 0x85, 0x3e, 0xfe, 0x33, 0x28, 0xbf, 0x34, 0x94, 0x84, 0x3e,
  0xaf, 0x20, 0x61, 0xbf, 0xc7, 0xd2, 0x89, 0xbe, 0x8f, 0xb4, 0x6e, 0xbf,
  0xc8, 0xaf, 0x82, 0x3e, 0x50, 0x91, 0x85, 0xbe, 0x4b, 0xa1, 0xae, 0xbd,
  0x3b, 0x99, 0x80, 0xbe, 0x20, 0x92, 0xc7, 0x3e, 0x75, 0x21, 0x44, 0xbf,
  0x21, 0x9c, 0x00, 0x3f, 0x00, 0x26, 0xb2, 0x3d, 0x88, 0x9b, 0xb4, 0x3e,
  0x7c, 0x31, 0x89, 0x3d, 0xad, 0xcd, 0x6a, 0xbe, 0x7e, 0xe1, 0xdc, 0x3e,
  0x47, 0x7d, 0xeb, 0xbd, 0xb6, 0xc5, 0x89, 0x3e, 0xfd, 0xa3, 0x99, 0xbe,
  0x5e, 0xa1, 0xc9, 0x3e, 0x5c, 0x57, 0xc8, 0xbe, 0x66, 0x6f, 0x8f, 0x3e,
  0x47, 0x37, 0x80, 0x3e, 0x17, 0xc3, 0xbc, 0xbe, 0x65, 0xa1, 0xbf, 0x3e,
  0x14, 0x3b, 0xc9, 0xbe, 0xcb, 0x79, 0x9a, 0xbe, 0x99, 0x4d, 0x9a, 0xbe,
  0x65, 0x3d, 0xac, 0x3d, 0xe7, 0xe5, 0xda, 0x3e, 0x87, 0xa7, 0xa0, 0x3e,
  0xdf, 0x2d, 0xd6, 0x3e, 0x62, 0xcb, 0x50, 0xbe, 0x0e, 0xeb, 0x69, 0xbe,
  0xbe, 0xda, 0x19, 0xbe, 0x57, 0x7f, 0xa2, 0xbe, 0xc9, 0x5d, 0xdc, 0xbd,
  0x95, 0xf3, 0x71, 0x3c, 0xc4, 0xe6, 0x1e, 0xbc, 0xe1, 0x5c, 0xc1, 0x3d,
  0x86, 0xbd, 0x9f, 0x3d, 0xa2, 0x63, 0x4b, 0xbd, 0xf0, 0xf2, 0x13, 0x3e,
  0x97, 0x0d, 0x09, 0x3e, 0x29, 0x8c, 0x2d, 0xbe, 0x52, 0x15, 0x2a, 0x3e,
  0xc3, 0xbb, 0x80, 0xbe, 0xab, 0xba, 0x92, 0x3e, 0xe4, 0x3e, 0x5b, 0xbe,
  0x3c, 0x74, 0x66, 0xbe, 0xf2, 0x66, 0x0a, 0xbe, 0x77, 0x0e, 0x39, 0xbe,
  0xac, 0xb7, 0x16, 0xbe, 0xa7, 0xa2, 0x6c, 0xbb, 0x4d, 0x60, 0x21, 0xbd,
  0xca, 0x28, 0x87, 0xbe, 0x1c, 0x38, 0x67, 0x3e, 0x45, 0xe7, 0xe3, 0xbe,
  0xbe, 0xc2, 0xc7, 0x3e, 0xe7, 0xaf, 0x1a, 0xbf, 0x93, 0x1f, 0x05, 0x3d,
  0x61, 0xee, 0xa5, 0x3a, 0x11, 0x33, 0x5b, 0x3e, 0x1c, 0x43, 0xab, 0x3d,
  0xbf, 0x54, 0x11, 0xbe, 0x45, 0x58, 0xd3, 0x3e, 0xef, 0x72, 0xa4, 0xbe,
  0x6f, 0x13, 0x19, 0x3e, 0x20, 0xdb, 0x70, 0xbe, 0x44, 0x90, 0x15, 0x3d,
  0x9a, 0xd0, 0x8a, 0x3e, 0xc5, 0x18, 0xed, 0xbe, 0xbe, 0x31, 0x87, 0x3e,
  0x89, 0x4b, 0x9f, 0x3e, 0x47, 0x40, 0xed, 0xbe, 0xac, 0xc5, 0xa9, 0x3e,
  0x65, 0xc3, 0x6f, 0x3c, 0x57, 0xe0, 0x0f, 0x3f, 0x67, 0xa9, 0xd0, 0x3e,
  0x65, 0xbe, 0x1f, 0x3f, 0x87, 0x04, 0x94, 0xbe, 0xb6, 0xa5, 0x01, 0xbf,
  0x6b, 0x11, 0xef, 0x3e, 0x88, 0x3f, 0x4c, 0x3e, 0xb9, 0x2a, 0x04, 0xbe,
  0x70, 0x42, 0x23, 0xbe, 0x3c, 0x59, 0xa3, 0xbe, 0xfe, 0x7d, 0x05, 0xbe,
  0xdc, 0x74, 0x11, 0xbf, 0x11, 0xb2, 0x92, 0x3d, 0xe7, 0xa2, 0x20, 0xbf,
  0x06, 0x91, 0xd4, 0x3e, 0xd4, 0xb1, 0x27, 0xbf, 0x1f, 0xf8, 0x3f, 0xbe,
  0x07, 0xa0, 0x1e, 0x3e, 0x68, 0x71, 0x45, 0xbe, 0xdd, 0x38, 0xd4, 0x3e,
  0xfd, 0x04, 0x9e, 0xbe, 0xf8, 0x2c, 0x8d, 0x3e, 0xaa, 0xee, 0xee, 0xbe,
  0x96, 0x50, 0xb1, 0x3e, 0x88, 0xd1, 0x90, 0xbd, 0x73, 0xfa, 0xd1, 0x3d,
  0x02, 0x55, 0xab, 0x3c, 0xfb, 0x3f, 0x9d, 0x3e, 0x29, 0xe5, 0xaf, 0x3f,
  0x1e, 0xfe, 0x13, 0x3e, 0x40, 0xc1, 0xfd, 0xbd, 0x18, 0xf1, 0x62, 0xbd,
  0xfa, 0x06, 0x4e, 0x3e, 0x80, 0xdf, 0x29, 0xbe, 0xac, 0xe0, 0xa6, 0xbd,
  0x45, 0xad, 0x16, 0x3e, 0xcb, 0x49, 0xcc, 0xbe, 0x43, 0xa9, 0xe6, 0x3e,
  0x27, 0x50, 0x8b, 0x3e, 0xce, 0x21, 0x17, 0x3d, 0xdc, 0x77, 0x95, 0x3e,
  0x63, 0x2c, 0x87, 0x3e, 0xcb, 0xb4, 0x5d, 0x3e, 0x40, 0x13, 0x8b, 0xbd,
  0xcd, 0xe5, 0x58, 0x3f, 0x36, 0x45, 0xba, 0x3e, 0xd9, 0x4c, 0xfe, 0x3e,
  0xaa, 0xe2, 0x23, 0x3e, 0x09, 0x33, 0x0a, 0x3e, 0x48, 0xbc, 0x8c, 0x3c,
  0xcb, 0x24, 0xb7, 0xbd, 0x4e, 0x87, 0x99, 0x3e, 0xdd, 0xae, 0x53, 0xbe,
  0x5e, 0x82, 0x62, 0x3e, 0x87, 0xee, 0x61, 0x3e, 0xf4, 0xb7, 0x02, 0xbd,
  0x3e, 0x7c, 0x05, 0x3e, 0x35, 0xa2, 0x91, 0xbe, 0x32, 0x1c, 0x98, 0xbe,
  0xce, 0xb1, 0xa9, 0xbe, 0x3d, 0xa5, 0x7b, 0x3e, 0xf3, 0xe2, 0xf6, 0xbd,
  0x44, 0x3a, 0x64, 0x3e, 0x9e, 0xab, 0x78, 0x3e, 0xb3, 0x51, 0xab, 0xbe,
  0xa5, 0x19, 0x64, 0x3d, 0x4a, 0x1b, 0x99, 0x3d, 0xc9, 0xe3, 0x12, 0x3e,
  0x02, 0x26, 0x5c, 0x3d, 0xf0, 0xfe, 0x07, 0xbe, 0xce, 0x8a, 0x75, 0xbe,
  0xe0, 0x42, 0x37, 0x3d, 0x91, 0x7c, 0x0f, 0x3e, 0x76, 0x05, 0x92, 0xbe,
  0xba, 0xe6, 0x41, 0xbc, 0x7a, 0x6f, 0x1b, 0x3e, 0xaa, 0xc3, 0xff, 0xff,
  0x04, 0x00, 0x00, 0x00, 0x00, 0x02, 0x00, 0x00, 0x8a, 0x2e, 0xe5, 0x3e,
  0x5d, 0xfc, 0xe9, 0xbe, 0x32, 0x16, 0x4e, 0xbf, 0x89, 0x61, 0x0c, 0xbf,
  0x7b, 0x3e, 0x43, 0xbe, 0x44, 0x85, 0x55, 0x3f, 0xc2, 0x35, 0x0c, 0x3f,
  0x11, 0x1c, 0xfd, 0x3e, 0x4d, 0xf4, 0x12, 0x3e, 0xc8, 0x7e, 0x2d, 0x3f,
  0x1a, 0x2b, 0x26, 0x3f, 0xbb, 0x17, 0x81, 0xbd, 0x77, 0x14, 0x94, 0xbf,
  0x4d, 0xbd, 0x61, 0x3e, 0x68, 0x80, 0x44, 0xbf, 0x5a, 0xce, 0x9c, 0xbe,
  0x15, 0x56, 0x5d, 0x3e, 0xa4, 0xeb, 0x49, 0xbe, 0x56, 0x52, 0x99, 0xbe,
  0x5d, 0x13, 0x03, 0xbf, 0x75, 0x52, 0xb3, 0xbd, 0x26, 0x76, 0x9d, 0xbe,
  0x6e, 0x28, 0x25, 0xbf, 0xb8, 0xd8, 0xb8, 0x3e, 0x7a, 0xc9, 0x5c, 0xbe,
  0x08, 0x27, 0x58, 0x3f, 0x5f, 0x6e, 0xfc, 0x3e, 0x11, 0xff, 0x4c, 0x3e,
  0x3d, 0xcb, 0x10, 0x3f, 0x64, 0xc7, 0x07, 0x3f, 0x30, 0x0d, 0x05, 0xbf,
  0x1b, 0x8c, 0x9c, 0xbe, 0xb6, 0xeb, 0x4e, 0x3f, 0xb1, 0xc2, 0x4f, 0x3e,
  0xe8, 0xf6, 0xd9, 0xbe, 0x17, 0xf7, 0xb8, 0xbe, 0x85, 0x87, 0xd9, 0x3d,
  0x00, 0x89, 0xc0, 0xbd, 0x00, 0x7a, 0x2d, 0xbd, 0xb6, 0x8d, 0x04, 0x3e,
  0x84, 0x12, 0x85, 0xbe, 0x59, 0xf7, 0x37, 0xbf, 0xad, 0x6c, 0x1a, 0x3f,
  0x06, 0xa2, 0xb5, 0x3e, 0x24, 0x65, 0xd3, 0xbd, 0x38, 0x2a, 0x43, 0x3e,
  0x6c, 0x0b, 0x9a, 0x3e, 0x9e, 0x10, 0x5c, 0x3d, 0x5e, 0x70, 0xa9, 0x3e,
  0x01, 0xc8, 0x16, 0x3f, 0xac, 0xcb, 0xa3, 0xbe, 0xa8, 0x5c, 0xc1, 0xbd,
  0x8a, 0x9d, 0x88, 0xbf, 0x71, 0x1d, 0x8e, 0xbe, 0x5f, 0xab, 0x9c, 0xbe,
  0x37, 0xf3, 0x53, 0x3e, 0xde, 0x1a, 0xf4, 0xbd, 0x6e, 0x7a, 0x5c, 0xbf,
  0xca, 0x59, 0x40, 0x3e, 0x73, 0x5a, 0x86, 0x3e, 0x32, 0x35, 0x20, 0x3e,
  0x3d, 0xa6, 0x49, 0xbf, 0xe5, 0x57, 0x85, 0x3e, 0x0b, 0x88, 0xbf, 0xbe,
  0x0f, 0xff, 0xac, 0xbf, 0x22, 0x5e, 0x29, 0xbf, 0xf4, 0x41, 0x40, 0x3e,
  0x84, 0x99, 0xb8, 0xbe, 0x8f, 0x78, 0xad, 0x3e, 0x4e, 0x94, 0x8c, 0xbe,
  0x16, 0x98, 0xb6, 0xbf, 0xb9, 0x16, 0xa3, 0xbf, 0xbd, 0x6d, 0x12, 0x3e,
  0xe9, 0xb8, 0x05, 0x3f, 0x5f, 0x50, 0x91, 0xbf, 0x59, 0x65, 0x36, 0x3e,
  0x95, 0x42, 0xeb, 0x3e, 0x7a, 0xcf, 0xbf, 0xbd, 0xc7, 0x99, 0x7f, 0x3e,
  0x09, 0x92, 0xb6, 0x3e, 0x84, 0xcd, 0x62, 0xbe, 0xd2, 0x62, 0xa4, 0xbf,
  0x13, 0xc0, 0x92, 0x3e, 0xde, 0x01, 0x01, 0x3f, 0x2e, 0xc3, 0x3d, 0x3f,
  0xda, 0x37, 0x88, 0xbe, 0xe9, 0x46, 0x95, 0x3e, 0x17, 0xf0, 0x64, 0xbe,
  0xb1, 0xa0, 0x8c, 0x3e, 0x46, 0x4c, 0x6f, 0x3f, 0x15, 0xd4, 0x8f, 0xbe,
  0xee, 0x2c, 0xac, 0xbe, 0x8c, 0xd0, 0x67, 0xbf, 0x14, 0x4f, 0xe4, 0xbe,
  0x69, 0xef, 0x07, 0xbe, 0x04, 0xfc, 0xf7, 0x3d, 0xb9, 0x22, 0x09, 0xbe,
  0x0c, 0xf8, 0xc2, 0x3e, 0x9c, 0xfc, 0x96, 0x3d, 0xf3, 0xcd, 0x87, 0x3e,
  0x69, 0xeb, 0xef, 0x3d, 0x60, 0x93, 0x47, 0xbf, 0x74, 0xa5, 0x65, 0xbe,
  0x73, 0xc5, 0x26, 0xbf, 0x2d, 0x80, 0x9e, 0x3e, 0x5e, 0x4b, 0x39, 0xbf,
  0xcb, 0x8b, 0x5c, 0x3e, 0x0a, 0x3b, 0x60, 0xbe, 0xbe, 0xab, 0xe1, 0x3e,
  0x1f, 0x3f, 0x5a, 0xbc, 0x51, 0x9a, 0x41, 0x3e, 0x63, 0x29, 0x68, 0xbc,
  0x2c, 0x8f, 0xaf, 0xbd, 0xcf, 0xc1, 0x4b, 0xbe, 0x17, 0x1a, 0xdb, 0x3d,
  0xb1, 0x10, 0x31, 0x3e, 0xb9, 0xce, 0xbf, 0xbe, 0x85, 0x61, 0x75, 0xbe,
  0x43, 0xb8, 0x88, 0x3e, 0xd8, 0xc0, 0x0c, 0xbf, 0x7f, 0xb3, 0x98, 0x3d,
  0x45, 0xfc, 0x29, 0xbf, 0x02, 0x90, 0x1a, 0xbf, 0xc8, 0x12, 0x2a, 0xbe,
  0x21, 0x07, 0x8b, 0xbe, 0x55, 0xa0, 0x41, 0x3f, 0xc4, 0x18, 0xc5, 0x3d,
  0x17, 0x12, 0xcb, 0x3d, 0xb6, 0xc5, 0xff, 0xff, 0x04, 0x00, 0x00, 0x00,
  0x40, 0x02, 0x00, 0x00, 0x8b, 0x34, 0xdb, 0x3d, 0x29, 0x5a, 0x80, 0xbd,
  0x85, 0x06, 0x8d, 0xbd, 0x5e, 0xf9, 0xa5, 0x3e, 0x83, 0xc7, 0xae, 0x3d,
  0x4e, 0x96, 0x0b, 0x3e, 0x7b, 0xf9, 0x84, 0x3e, 0x22, 0x30, 0x62, 0xbe,
  0xfd, 0xb4, 0x88, 0x3e, 0x59, 0x82, 0x87, 0x3e, 0xd4, 0xd4, 0x99, 0x3e,
  0x14, 0x88, 0x99, 0x3e, 0x29, 0x0c, 0x69, 0x3e, 0xd8, 0x4b, 0xd1, 0xbe,
  0xa3, 0x0f, 0xaf, 0x3e, 0xa5, 0xb7, 0xbf, 0x3e, 0x00, 0x39, 0x8a, 0x3e,
  0xf0, 0xc3, 0xb4, 0x3e, 0xfc, 0xc5, 0x39, 0xbe, 0x2f, 0xd7, 0xc5, 0x3c,
  0x88, 0xd8, 0x96, 0xbd, 0xae, 0x73, 0xff, 0xbd, 0x3f, 0xbd, 0x00, 0x3e,
  0x0b, 0xca, 0x84, 0xbe, 0x02, 0xaa, 0x16, 0x3e, 0x31, 0x9b, 0x01, 0x3f,
  0x46, 0xcb, 0x99, 0x3d, 0x27, 0x5a, 0xbe, 0x3e, 0x90, 0xc7, 0x4f, 0x3e,
  0xb3, 0x3e, 0x06, 0x3e, 0x62, 0x0b, 0x04, 0x3e, 0x30, 0x4e, 0x70, 0x3c,
  0x27, 0x89, 0xa9, 0x3d, 0x0a, 0x46, 0x84, 0x3e, 0xc4, 0x4d, 0x4b, 0x3e,
  0x66, 0xaa, 0x88, 0x3e, 0xa9, 0x2f, 0x34, 0x3c, 0xbf, 0x74, 0x23, 0x3d,
  0x5e, 0xae, 0x64, 0xbd, 0x96, 0x80, 0x0e, 0xbe, 0x93, 0x09, 0x44, 0x3d,
  0x4d, 0xfe, 0x50, 0x3e, 0x78, 0xf9, 0x0e, 0x3e, 0x6d, 0x42, 0x84, 0x3e,
  0xb8, 0xbc, 0x88, 0xbe, 0x66, 0x02, 0x2c, 0x3e, 0xdf, 0x31, 0xa9, 0xbe,
  0x1b, 0x16, 0x2a, 0xbd, 0x59, 0xbd, 0x90, 0x3e, 0xf8, 0x60, 0xd0, 0xbd,
  0x46, 0x0a, 0x11, 0xbf, 0x26, 0xde, 0x2f, 0x3d, 0x68, 0xfa, 0x8f, 0x3e,
  0xcd, 0x99, 0xf5, 0x3d, 0x1c, 0x1b, 0x59, 0xbc, 0x66, 0x14, 0xce, 0x3d,
  0xdf, 0x54, 0xc6, 0x3d, 0x84, 0x95, 0xcc, 0x3e, 0xcb, 0x58, 0x21, 0x3e,
  0x4a, 0xe8, 0xca, 0x3e, 0x9e, 0x62, 0xc0, 0x3e, 0x99, 0x29, 0xd3, 0xbe,
  0x6e, 0x7b, 0x71, 0x3e, 0x4a, 0x75, 0xb0, 0x3d, 0xc9, 0x99, 0x81, 0x3e,
  0x15, 0xcf, 0x9b, 0x3d, 0x88, 0x92, 0x05, 0xbe, 0xa3, 0xd0, 0xa0, 0x3e,
  0xd1, 0x39, 0x0d, 0xbe, 0x12, 0xe9, 0x85, 0xbd, 0x92, 0x72, 0x39, 0xbd,
  0xf8, 0x4b, 0x26, 0xbd, 0x36, 0xbd, 0x9c, 0x3e, 0x3b, 0xf2, 0xcc, 0x3e,
  0xb1, 0x5f, 0x13, 0x3e, 0x44, 0x8e, 0x34, 0x3d, 0xea, 0x53, 0x6d, 0x3e,
  0xdb, 0x97, 0x3f, 0x3d, 0x6c, 0xe8, 0x11, 0x3e, 0xbe, 0x03, 0x82, 0x3e,
  0xd2, 0xa7, 0xb8, 0x3e, 0x40, 0xcc, 0x61, 0x3e, 0x15, 0xec, 0xcd, 0x3d,
  0xa9, 0xb1, 0x09, 0x3e, 0x76, 0xf8, 0x84, 0x3e, 0xe6, 0xbc, 0x43, 0xbe,
  0xea, 0x7a, 0x09, 0xbe, 0xfb, 0xd8, 0xd2, 0xbc, 0x54, 0xdf, 0x36, 0x3e,
  0x24, 0xd3, 0xd2, 0x3e, 0x8f, 0x4f, 0x27, 0x3e, 0xbc, 0x29, 0xa5, 0x3e,
  0x08, 0x8d, 0x96, 0xbe, 0x56, 0x83, 0x80, 0x3e, 0x19, 0xb2, 0xd6, 0xbe,
  0x11, 0x70, 0xcd, 0x3d, 0x62, 0x90, 0xe6, 0x3e, 0xbb, 0x2f, 0xb9, 0xbe,
  0x86, 0xb4, 0x3a, 0xbf, 0xf8, 0xe8, 0x82, 0x3e, 0xd8, 0xf8, 0x7f, 0x3e,
  0x3d, 0xc7, 0x9c, 0xbe, 0x11, 0x64, 0x1a, 0xbe, 0x61, 0xb8, 0xb8, 0x3d,
  0xe1, 0xdc, 0xb2, 0x3e, 0xb2, 0xbb, 0x4c, 0x3e, 0xc5, 0xa6, 0x44, 0x3e,
  0x16, 0x95, 0xe7, 0x3d, 0x44, 0x1b, 0xc5, 0x3e, 0xcf, 0xa2, 0xc7, 0xbd,
  0x48, 0xdc, 0x85, 0x3e, 0xa1, 0xf2, 0x53, 0x3e, 0x92, 0x07, 0x11, 0x3e,
  0xcd, 0xf4, 0x8f, 0xbd, 0xa8, 0x14, 0xab, 0xbd, 0xbb, 0x3f, 0x95, 0x3e,
  0x2d, 0x8b, 0x79, 0xbe, 0xe2, 0x56, 0x6a, 0x3e, 0x67, 0x8c, 0x1c, 0x3e,
  0x6e, 0x5e, 0x8f, 0x3e, 0x7c, 0x6e, 0xae, 0x3d, 0xda, 0xbe, 0xec, 0x3e,
  0xeb, 0xf3, 0xb1, 0x3e, 0x64, 0xae, 0xae, 0x3e, 0x18, 0x2f, 0xab, 0x3b,
  0xfa, 0x7d, 0x7f, 0xbc, 0x11, 0xbd, 0xc0, 0x3d, 0x68, 0x6e, 0xb9, 0x3d,
  0x26, 0x12, 0x24, 0x3e, 0xde, 0xe6, 0xe8, 0xbd, 0xc3, 0xf7, 0x84, 0x3e,
  0xef, 0xfd, 0x79, 0x3e, 0xfc, 0xd2, 0x9b, 0x3e, 0x5a, 0x4e, 0xcf, 0x3c,
  0x65, 0x3a, 0x66, 0x3e, 0x78, 0x33, 0x0c, 0x3e, 0xac, 0x67, 0xab, 0x3e,
  0x3e, 0xcc, 0xfa, 0x3d, 0xe5, 0x96, 0x26, 0x3e, 0x67, 0xfc, 0x9c, 0x3e,
  0x45, 0x0f, 0x09, 0x3d, 0xc9, 0x07, 0x3f, 0x3e, 0x39, 0x15, 0xa7, 0xbe,
  0x1c, 0xbc, 0xa2, 0xbd, 0x02, 0xc8, 0xff, 0xff, 0x04, 0x00, 0x00, 0x00,
  0x00, 0x36, 0x00, 0x00, 0xe8, 0x39, 0xde, 0xbe, 0xa9, 0xdc, 0x82, 0x3e,
  0x51, 0xa4, 0x29, 0xbd, 0x55, 0xd5, 0x11, 0xbf, 0x43, 0x65, 0xb8, 0xbe,
  0x7c, 0x7b, 0x74, 0xbd, 0x49, 0x08, 0x51, 0xbe, 0x6a, 0x36, 0xe6, 0xbd,
  0xac, 0x58, 0xf0, 0xbe, 0x11, 0xc9, 0x1d, 0xbd, 0x1d, 0xe1, 0x53, 0xbe,
  0x19, 0xa8, 0xbb, 0xbc, 0x3d, 0xe2, 0x72, 0xbf, 0xec, 0x69, 0xec, 0xbe,
  0x6b, 0x5c, 0xd3, 0xbe, 0x3f, 0x88, 0xb5, 0xbe, 0xa2, 0xbd, 0x6e, 0xbe,
  0x67, 0xd6, 0x1b, 0x3f, 0xd5, 0x6e, 0xce, 0xbd, 0xf1, 0x0a, 0xda, 0xbe,
  0x4f, 0xdc, 0x2e, 0xbe, 0xb3, 0x92, 0x9a, 0xbb, 0xd0, 0x39, 0xdb, 0xbd,
  0x83, 0x65, 0x5b, 0xbe, 0xee, 0x56, 0x0e, 0xbe, 0xeb, 0x87, 0x1a, 0x3e,
  0x35, 0x31, 0x77, 0x3e, 0x2e, 0x5e, 0xb3, 0x3e, 0x12, 0xc7, 0xb4, 0xbe,
  0x81, 0xd7, 0x92, 0xbe, 0xa4, 0x6f, 0x89, 0xbe, 0x96, 0x42, 0x8b, 0xbd,
  0x25, 0x33, 0x89, 0xbe, 0x1a, 0xa6, 0x0e, 0x3f, 0x7b, 0xac, 0xc3, 0xbe,
  0xea, 0x2d, 0x49, 0xbe, 0x2c, 0xe2, 0x6f, 0xbd, 0x13, 0x6a, 0x08, 0x3e,
  0x2f, 0x44, 0x17, 0xbc, 0x36, 0x03, 0x6e, 0x3d, 0xdc, 0xfb, 0xcb, 0xbe,
  0x09, 0x5c, 0xac, 0x3e, 0xdb, 0xd9, 0x3c, 0x3e, 0x8f, 0xb0, 0xf8, 0x3e,
  0x9b, 0xbc, 0x2d, 0xbe, 0x37, 0x53, 0xd5, 0xbe, 0xc4, 0xd9, 0xf5, 0xbe,
  0x45, 0xc8, 0x07, 0x3e, 0xca, 0xec, 0x23, 0xbf, 0x26, 0xca, 0x21, 0x3e,
  0xf3, 0x30, 0xf4, 0xbd, 0x50, 0xd0, 0x1f, 0xbf, 0x3c, 0xf5, 0x03, 0xbf,
  0x20, 0x26, 0xda, 0xbb, 0xed, 0x7b, 0x4e, 0xbe, 0xf4, 0x69, 0x37, 0xbe,
  0x46, 0x8f, 0x06, 0xbf, 0xab, 0xdc, 0x35, 0xbe, 0x19, 0xf2, 0xf7, 0xbd,
  0x06, 0xdb, 0x22, 0xbe, 0xf4, 0xdb, 0x6d, 0xbf, 0xb8, 0x0b, 0xef, 0xbe,
  0x28, 0x76, 0xd4, 0xbd, 0x40, 0x97, 0xb9, 0xbe, 0xf8, 0xef, 0xd0, 0xbe,
  0x10, 0xff, 0xf4, 0x3e, 0x51, 0x6f, 0x68, 0xbe, 0xf8, 0xd9, 0xb3, 0xbe,
  0xc9, 0x7d, 0xa9, 0xbe, 0xcb, 0x06, 0xfd, 0x3c, 0x6c, 0xc5, 0xe4, 0xbd,
  0x10, 0x60, 0x5c, 0xbe, 0x30, 0x4d, 0x8d, 0xbe, 0x47, 0xa0, 0x0d, 0x3e,
  0x40, 0xfc, 0x0f, 0x3e, 0x42, 0x36, 0x3a, 0x3e, 0xf8, 0xef, 0x0e, 0xbf,
  0x81, 0xe9, 0xbb, 0xbe, 0x9b, 0x70, 0xac, 0xbe, 0x3a, 0xd6, 0x49, 0xbe,
  0x45, 0x23, 0xa6, 0xbe, 0xa4, 0x80, 0x0c, 0x3f, 0x41, 0x53, 0x21, 0xbf,
  0x77, 0x20, 0x9e, 0xbe, 0xaf, 0x53, 0x84, 0xbd, 0xe8, 0xd4, 0xf4, 0x3a,
  0x1d, 0x8c, 0x58, 0xbd, 0x5d, 0xa8, 0x4d, 0xbe, 0x95, 0xc1, 0x59, 0xbe,
  0x14, 0x4f, 0xea, 0x3e, 0xd4, 0xda, 0x7a, 0x3e, 0x11, 0x98, 0xae, 0x3e,
  0xb5, 0x57, 0x81, 0xbe, 0x3a, 0x1f, 0x9f, 0xbe, 0x1a, 0x61, 0xe1, 0xbe,
  0xab, 0x6f, 0x0e, 0x3e, 0x73, 0xba, 0x57, 0xbf, 0x28, 0x7f, 0x29, 0x3e,
  0x14, 0x93, 0x25, 0xbe, 0x7b, 0x65, 0x24, 0xbf, 0x60, 0x65, 0x0f, 0xbf,
  0x46, 0x4d, 0x60, 0x3d, 0xa2, 0x61, 0xec, 0xbd, 0x69, 0x74, 0xda, 0xbd,
  0x26, 0x92, 0x0c, 0xbf, 0x25, 0xe1, 0x0c, 0xbe, 0x41, 0x5a, 0x05, 0xbe,
  0xa5, 0xdb, 0x19, 0xbe, 0x44, 0x0e, 0x93, 0xbf, 0xbb, 0x1a, 0xd5, 0xbe,
  0xb2, 0x6f, 0x68, 0xbd, 0xbc, 0x20, 0x98, 0xbe, 0x86, 0x69, 0xeb, 0xbe,
  0x9e, 0xa8, 0x60, 0x3e, 0x2c, 0x67, 0x6d, 0xbe, 0x21, 0xf7, 0x06, 0xbf,
  0x6f, 0xff, 0x63, 0xbe, 0xe1, 0xd7, 0x2b, 0x3e, 0x60, 0x49, 0xe3, 0xbc,
  0x22, 0x4c, 0xab, 0xbc, 0x4b, 0x81, 0xe8, 0xbe, 0x0d, 0xe3, 0xe4, 0x3d,
  0x74, 0x4f, 0x98, 0x3d, 0xab, 0x8f, 0xc4, 0x3e, 0x49, 0xda, 0x16, 0xbf,
  0x56, 0xa0, 0xc4, 0xbe, 0x2d, 0xa2, 0xb9, 0xbe, 0x19, 0x4f, 0x7e, 0xbd,
  0x71, 0x07, 0xf9, 0xbe, 0xcb, 0x75, 0xbf, 0x3e, 0xdc, 0xcd, 0x43, 0xbf,
  0x7a, 0xd8, 0x9b, 0xbe, 0x70, 0xc1, 0x4b, 0x3c, 0xb0, 0x93, 0xe1, 0x3d,
  0x32, 0x40, 0x52, 0xbe, 0x7d, 0x06, 0xa9, 0xbd, 0x93, 0xfc, 0xa3, 0xbe,
  0x70, 0xd3, 0x94, 0x3e, 0x98, 0x1f, 0xb1, 0x3e, 0xbf, 0x24, 0xe7, 0x3e,
  0x0b, 0x09, 0x51, 0xbe, 0xa7, 0x34, 0x97, 0xbe, 0x0d, 0xbd, 0xce, 0xbe,
  0x78, 0x97, 0x20, 0x3e, 0x6a, 0x7f, 0xe6, 0xbd, 0x66, 0x74, 0x57, 0xbe,
  0x8d, 0x1b, 0x58, 0x3e, 0x0d, 0xc4, 0x58, 0x3e, 0xd8, 0xa2, 0xdb, 0xbd,
  0xf4, 0xb2, 0x38, 0xbe, 0x3c, 0x39, 0x4f, 0xbe, 0x91, 0xb6, 0x40, 0xbe,
  0x44, 0x79, 0x44, 0xbc, 0x97, 0x17, 0x6a, 0xbd, 0x43, 0xf0, 0x56, 0xbe,
  0x14, 0xcc, 0xd6, 0x3d, 0xfd, 0x1d, 0xcc, 0x3c, 0x90, 0xe4, 0x90, 0x3e,
  0xea, 0xc6, 0x6f, 0x3e, 0x00, 0x33, 0x9e, 0xbe, 0x38, 0xb0, 0x65, 0x3d,
  0x3d, 0x4d, 0xb3, 0xbe, 0x41, 0xb0, 0xac, 0x3e, 0x27, 0xc3, 0x9f, 0x3d,
  0x86, 0xce, 0xb6, 0xbd, 0x54, 0x3d, 0xa0, 0xbe, 0x1d, 0x3d, 0x51, 0xbd,
  0x02, 0x4b, 0x56, 0xbe, 0x18, 0x02, 0xd1, 0xbc, 0xc6, 0x28, 0x93, 0xbc,
  0xf9, 0xc1, 0x1a, 0xbe, 0xcd, 0x95, 0x00, 0x3e, 0x3d, 0x9a, 0xb0, 0x3d,
  0x0d, 0xab, 0x92, 0x3e, 0x91, 0x87, 0x23, 0x3e, 0xc8, 0xac, 0xb9, 0xbd,
  0xfa, 0x0e, 0x1f, 0xbc, 0xb0, 0x20, 0x5c, 0xbe, 0x2f, 0x8f, 0x24, 0x3e,
  0x1a, 0x2d, 0x43, 0x3d, 0x31, 0x23, 0xaa, 0xbd, 0xa4, 0x14, 0x2e, 0xbe,
  0xc9, 0xb0, 0x22, 0xbe, 0xf7, 0x32, 0x7a, 0xbe, 0x23, 0xec, 0x04, 0xbe,
  0xe6, 0x18, 0x99, 0xbd, 0x61, 0x43, 0x13, 0xbe, 0x43, 0x08, 0x80, 0x3d,
  0x42, 0x0d, 0x2d, 0x3e, 0x08, 0x90, 0xdd, 0x3e, 0x3b, 0xb5, 0x4f, 0x3e,
  0x1b, 0x28, 0x55, 0xbd, 0x8c, 0x8a, 0xee, 0xba, 0xb2, 0x28, 0x21, 0xbe,
  0x2e, 0x5e, 0x97, 0x3e, 0x43, 0xe8, 0xf1, 0x3d, 0x68, 0xa8, 0x10, 0xbe,
  0x69, 0x32, 0x4b, 0xbe, 0xaa, 0x80, 0x90, 0xbd, 0x7e, 0xb5, 0x27, 0xbe,
  0x09, 0xf5, 0x69, 0x3d, 0x5b, 0xb1, 0x50, 0x3d, 0x13, 0x2d, 0x90, 0xbe,
  0xe2, 0xb7, 0x53, 0x3e, 0x95, 0xa4, 0x11, 0x3e, 0x41, 0x38, 0xaa, 0x3e,
  0xb3, 0x68, 0x38, 0x3e, 0x88, 0xfb, 0x90, 0xbe, 0x32, 0xd9, 0x51, 0xbd,
  0xd1, 0x95, 0xa0, 0xbe, 0x44, 0xf4, 0x04, 0x3f, 0x33, 0xf3, 0x31, 0x3c,
  0xef, 0x28, 0xb0, 0xbe, 0x55, 0x73, 0x66, 0xbe, 0x9b, 0xff, 0x31, 0xbe,
  0x51, 0xcf, 0x5c, 0xbe, 0x01, 0x19, 0x69, 0xbd, 0xaf, 0xc7, 0x02, 0xbd,
  0x56, 0x13, 0xc1, 0xbd, 0x61, 0x80, 0x7c, 0x3e, 0xab, 0xd0, 0x8b, 0x3b,
  0xd9, 0xb5, 0x6a, 0x3e, 0x3f, 0xb0, 0x57, 0x3e, 0x54, 0xc0, 0x63, 0xbe,
  0xfd, 0x03, 0x89, 0xbc, 0x03, 0x10, 0x4f, 0xbd, 0xe4, 0xdd, 0x47, 0x3e,
  0x6e, 0x85, 0x89, 0x3c, 0x75, 0x5f, 0x45, 0xbd, 0x17, 0xff, 0x58, 0xbe,
  0xc7, 0x0d, 0xaa, 0xbd, 0xac, 0x42, 0x48, 0xbe, 0xbb, 0xab, 0x44, 0x3d,
  0xc6, 0xbd, 0x8e, 0x3d, 0x3a, 0x84, 0x4f, 0xbe, 0xa0, 0x63, 0x70, 0x3e,
  0x8b, 0x9a, 0x3e, 0x3e, 0xb5, 0xa0, 0x02, 0x3f, 0x58, 0xf8, 0x7d, 0x3e,
  0x14, 0xb5, 0x43, 0xbe, 0x63, 0xde, 0x8a, 0xbd, 0x89, 0x31, 0x88, 0xbe,
  0x4b, 0x14, 0xb3, 0x3e, 0x74, 0xa8, 0x55, 0x3e, 0xfd, 0x40, 0x91, 0xbe,
  0x24, 0xe3, 0x7d, 0xbe, 0x9b, 0xe2, 0x45, 0xbe, 0x5e, 0xad, 0x43, 0xbe,
  0xdb, 0x96, 0x28, 0xbd, 0xd0, 0xeb, 0xa3, 0x3d, 0x6f, 0xe1, 0x98, 0xbe,
  0x70, 0x19, 0xa0, 0x3d, 0xa5, 0xad, 0x12, 0x3e, 0x5c, 0xd7, 0x9f, 0x3e,
  0xf3, 0x5f, 0x96, 0x3e, 0x98, 0xec, 0x55, 0xbe, 0x7e, 0x84, 0x04, 0x3d,
  0xd6, 0xf0, 0x90, 0xbe, 0x40, 0xd9, 0xeb, 0x3e, 0x25, 0x48, 0x68, 0x3e,
  0x91, 0x8e, 0x1d, 0xbe, 0x1a, 0xd6, 0x9a, 0xbe, 0x0f, 0x2e, 0x09, 0xbe,
  0xe7, 0x93, 0xbe, 0xbe, 0xa0, 0x0a, 0x99, 0x3d, 0x82, 0x33, 0x12, 0xbd,
  0x6d, 0xef, 0x0b, 0xbe, 0x75, 0x0e, 0xd3, 0x3d, 0xac, 0x54, 0xcc, 0x3d,
  0xba, 0x91, 0x65, 0x3e, 0xcc, 0x74, 0xf2, 0x3d, 0x69, 0x2f, 0xa5, 0xbd,
  0x90, 0x8e, 0x51, 0x3c, 0xd9, 0x71, 0x2f, 0xbe, 0x6a, 0x24, 0x84, 0x3e,
  0xc5, 0x62, 0x75, 0x3c, 0x38, 0x3f, 0x05, 0xbe, 0x38, 0xa4, 0x76, 0xbe,
  0x3f, 0x7b, 0xef, 0xbd, 0xc2, 0xd2, 0x86, 0xbe, 0xf7, 0x73, 0xf4, 0x3b,
  0xda, 0x3a, 0xa0, 0x3d, 0xae, 0x77, 0x8b, 0xbd, 0x99, 0x7a, 0x9f, 0x3c,
  0x6f, 0x8f, 0x13, 0x3e, 0x1d, 0x26, 0xbe, 0x3e, 0xae, 0xd1, 0xa5, 0x3e,
  0xaf, 0x52, 0x42, 0xbe, 0x54, 0x70, 0xa4, 0xbd, 0x7e, 0xaf, 0xce, 0x3e,
  0xf7, 0x21, 0x3a, 0xbe, 0x56, 0x5a, 0xd2, 0xbd, 0xb0, 0x23, 0x49, 0x3e,
  0x9e, 0x15, 0x95, 0x3e, 0x17, 0x2b, 0x07, 0x3e, 0xb7, 0x93, 0x47, 0x3e,
  0x52, 0xcb, 0xf6, 0x3c, 0xf7, 0x14, 0xc2, 0xbd, 0x15, 0xd4, 0x42, 0x3d,
  0x2c, 0x9a, 0x2e, 0xbe, 0x61, 0x51, 0x67, 0xbd, 0xe7, 0xc5, 0xd9, 0xbe,
  0x86, 0x16, 0x82, 0xbe, 0x9e, 0xf9, 0xc3, 0x3d, 0xd7, 0xfd, 0xd5, 0x3d,
  0xc6, 0x5e, 0xc2, 0x3e, 0xd6, 0x0f, 0x8f, 0xbe, 0x73, 0x99, 0x1b, 0xbe,
  0x10, 0x20, 0x1d, 0x3e, 0x66, 0x99, 0x85, 0x3e, 0x40, 0x23, 0xfd, 0x3d,
  0xe5, 0x09, 0xae, 0x3e, 0xd3, 0x7e, 0x2f, 0xbd, 0xe3, 0x24, 0x82, 0xbd,
  0xd7, 0xb3, 0xb1, 0x3c, 0x81, 0xc4, 0x3c, 0x3d, 0x6d, 0x7e, 0x97, 0x3c,
  0x27, 0x04, 0x34, 0xbe, 0xe5, 0x37, 0x6e, 0xbe, 0x68, 0xeb, 0xe0, 0x3a,
  0x3e, 0xb2, 0x84, 0x3c, 0x7b, 0x40, 0x5a, 0x3e, 0x26, 0x43, 0x02, 0xbe,
  0xef, 0xc1, 0x9d, 0x3d, 0x7f, 0xb9, 0x82, 0x3e, 0x84, 0x98, 0x29, 0x3e,
  0x99, 0x9e, 0x2d, 0x3e, 0x27, 0x5b, 0xb1, 0x3e, 0xca, 0x07, 0xe8, 0x3d,
  0x92, 0x6a, 0x45, 0x3e, 0x5e, 0xa5, 0xa0, 0xbc, 0xed, 0x4e, 0x26, 0x3d,
  0xa9, 0x9b, 0x9f, 0x3b, 0x48, 0x1e, 0x6a, 0x3d, 0x1c, 0x99, 0xb1, 0x3d,
  0x45, 0x12, 0xf8, 0x3d, 0x1d, 0x2c, 0x8e, 0x3d, 0xcb, 0x03, 0x9b, 0x3e,
  0x68, 0x02, 0x7b, 0xbe, 0xd1, 0xaa, 0x4c, 0xbe, 0x95, 0x60, 0x40, 0x3e,
  0xb4, 0xd0, 0xf5, 0x3d, 0x12, 0x5f, 0xe3, 0x3d, 0xb1, 0xb6, 0x0d, 0x3e,
  0x98, 0xd7, 0xcd, 0xbc, 0xa7, 0x35, 0x31, 0xbe, 0x07, 0xa3, 0x2c, 0xbe,
  0x07, 0xe6, 0x33, 0xbd, 0x79, 0x95, 0x51, 0xbe, 0x56, 0xd5, 0xa7, 0xbe,
  0x1b, 0xa9, 0xaa, 0xbe, 0xa5, 0xf6, 0x2f, 0xbd, 0xee, 0x2e, 0x61, 0xbd,
  0xfb, 0x59, 0x45, 0x3e, 0xa3, 0xad, 0x40, 0xbe, 0x62, 0x4f, 0x0b, 0xbe,
  0xf6, 0xdd, 0x99, 0x3e, 0xba, 0x7f, 0x2b, 0x3e, 0x05, 0x4f, 0x88, 0x3d,
  0xd7, 0x23, 0x6e, 0x3e, 0x64, 0x8c, 0x45, 0x3e, 0x8b, 0xff, 0x9a, 0xbc,
  0x5a, 0x63, 0x9d, 0xbd, 0x3e, 0x7c, 0x19, 0xbe, 0x54, 0x8e, 0x51, 0xbe,
  0x15, 0x4c, 0xe1, 0xbd, 0x1a, 0xa1, 0x0a, 0xbe, 0x22, 0xef, 0xa2, 0x3d,
  0x6a, 0xa1, 0x1a, 0x3d, 0x1f, 0xab, 0xc8, 0x3e, 0x6c, 0xc2, 0x94, 0x3d,
  0x24, 0xd3, 0x91, 0x3c, 0xce, 0x72, 0x6a, 0x3e, 0x74, 0x56, 0xcf, 0x3d,
  0x24, 0x2c, 0xf3, 0xbc, 0x76, 0xf2, 0x97, 0x3e, 0x1e, 0x4f, 0x21, 0x3e,
  0xc0, 0x34, 0x30, 0x3d, 0xd2, 0x48, 0x0c, 0x3d, 0x4f, 0xda, 0x3e, 0xbd,
  0x99, 0x5e, 0x16, 0xbc, 0x8b, 0x01, 0xbc, 0x3a, 0x2a, 0x32, 0xf5, 0xbd,
  0xf4, 0xf3, 0x70, 0x3e, 0x3e, 0x8d, 0xe1, 0x3d, 0xae, 0xcf, 0x28, 0x3e,
  0x3f, 0x11, 0xa5, 0xbe, 0x89, 0x33, 0x5f, 0xbd, 0xf9, 0x6c, 0x2d, 0x3e,
  0xa4, 0x3b, 0x1e, 0x3e, 0xae, 0x9d, 0x2c, 0xbd, 0x35, 0x3d, 0x47, 0x3e,
  0x02, 0xc6, 0x8d, 0x3d, 0x29, 0x85, 0x76, 0xbe, 0x2f, 0xa0, 0x0f, 0xbe,
  0xec, 0x4b, 0x0a, 0xbe, 0x9f, 0x22, 0xa1, 0xbd, 0x4e, 0x80, 0x15, 0xbe,
  0x9a, 0xc6, 0x7e, 0xbe, 0x33, 0xc0, 0x72, 0x3d, 0x98, 0x7c, 0x14, 0x3e,
  0x94, 0x29, 0x02, 0x3e, 0xd3, 0x60, 0x2a, 0xbe, 0xac, 0x36, 0x33, 0xbe,
  0x3a, 0x94, 0x5e, 0x3e, 0x42, 0x1f, 0x70, 0x3e, 0x92, 0x7c, 0x16, 0x3c,
  0xef, 0xda, 0x10, 0x3e, 0x14, 0xe9, 0xce, 0x3d, 0x30, 0x23, 0x52, 0xbe,
  0x43, 0x4c, 0x34, 0x3d, 0xa2, 0xf5, 0x98, 0xbc, 0xb2, 0xdb, 0x0c, 0x3d,
  0x0b, 0xfb, 0x24, 0xbc, 0xfa, 0xa2, 0xfa, 0xbd, 0xf5, 0x0a, 0x77, 0x3e,
  0x35, 0x7d, 0x74, 0x3d, 0x75, 0xf0, 0xd1, 0x3e, 0x60, 0x6a, 0xde, 0xbd,
  0xad, 0xff, 0xd5, 0xbd, 0xd1, 0xf8, 0xc9, 0x3e, 0xa9, 0x3d, 0x4f, 0x3e,
  0xce, 0x45, 0xde, 0xba, 0x10, 0x27, 0x94, 0x3e, 0x0f, 0x16, 0x20, 0x3e,
  0x97, 0xd9, 0x89, 0xbd, 0xe4, 0x25, 0xac, 0xbd, 0x40, 0xc5, 0x28, 0xbe,
  0xf8, 0x53, 0x36, 0xbd, 0xe6, 0xa1, 0x90, 0x3d, 0x8a, 0xd1, 0x7b, 0xbd,
  0xe6, 0xd7, 0x4b, 0x3e, 0x5a, 0x26, 0x97, 0x3d, 0x2e, 0x7e, 0x14, 0x3e,
  0xb2, 0x0a, 0x5a, 0xbd, 0x5f, 0xd6, 0x85, 0xba, 0x51, 0x7e, 0x93, 0x3e,
  0x64, 0xec, 0x42, 0x3d, 0x3f, 0x05, 0x02, 0x3e, 0x6b, 0xa4, 0x9f, 0x3e,
  0xeb, 0x75, 0xc0, 0xbc, 0xcf, 0xe5, 0xa9, 0x3d, 0xc4, 0xbb, 0x4e, 0x3e,
  0xbd, 0x7b, 0x0a, 0xbc, 0xad, 0xae, 0x1d, 0x3e, 0x50, 0x94, 0xce, 0xbe,
  0xee, 0x20, 0x26, 0xbe, 0x6d, 0xe0, 0x11, 0x3e, 0xda, 0xbf, 0xa2, 0x3d,
  0x03, 0x6f, 0xf9, 0x3c, 0x02, 0x15, 0x92, 0xbd, 0xa4, 0xe2, 0x0e, 0x3d,
  0x28, 0xb5, 0xa3, 0x3d, 0x23, 0xbb, 0x56, 0x3e, 0xbe, 0xaa, 0xbe, 0xbd,
  0xbf, 0xbf, 0x04, 0x3e, 0x3e, 0xb5, 0x86, 0x3b, 0x0f, 0x5c, 0xe2, 0xbd,
  0x1b, 0x8e, 0x1a, 0x3e, 0x47, 0xca, 0x4d, 0xbe, 0x73, 0x6c, 0x39, 0xbd,
  0xc1, 0x56, 0x1e, 0xbe, 0x7a, 0x03, 0xa8, 0xbe, 0x5d, 0x29, 0x2e, 0x3e,
  0x9b, 0x42, 0xf5, 0x3d, 0x29, 0xd0, 0x6c, 0xbd, 0xb1, 0x15, 0xd7, 0xbe,
  0x0d, 0xb2, 0x32, 0xbe, 0x1e, 0x32, 0xb7, 0x3d, 0x22, 0x55, 0x98, 0x3d,
  0xe9, 0x28, 0x2f, 0xbc, 0x08, 0x23, 0x86, 0x3e, 0xb4, 0x5a, 0x19, 0x3e,
  0xb9, 0xdc, 0x04, 0x3d, 0x52, 0xb3, 0x81, 0xbd, 0x04, 0x01, 0x92, 0xbe,
  0x11, 0x86, 0xed, 0xbd, 0xf1, 0x4b, 0x26, 0xbe, 0x75, 0xbc, 0xf1, 0xbe,
  0xd3, 0x51, 0x39, 0x3d, 0x78, 0x93, 0x96, 0xbd, 0x94, 0x9d, 0x74, 0x3e,
  0xb4, 0xc8, 0xb7, 0xbd, 0x8f, 0xd6, 0x19, 0x3d, 0xed, 0x1c, 0xa2, 0x3e,
  0xc8, 0x27, 0x0f, 0xbd, 0x0e, 0x6d, 0x04, 0x3e, 0x30, 0x97, 0xef, 0x3d,
  0xa7, 0xf1, 0xca, 0x3d, 0x8d, 0x1e, 0x0e, 0x3e, 0xaf, 0xa0, 0xad, 0x3d,
  0xf8, 0xb1, 0xb1, 0x3d, 0x31, 0xec, 0x31, 0x3e, 0xb6, 0xfe, 0xb6, 0xbe,
  0x5b, 0x99, 0x77, 0xbe, 0xca, 0x96, 0xa7, 0x3d, 0x73, 0x55, 0x2e, 0xbd,
  0xea, 0x16, 0x48, 0x3e, 0xd9, 0x0f, 0x09, 0xbe, 0xe2, 0xb3, 0x13, 0xbe,
  0x02, 0x80, 0x2b, 0x3b, 0x9a, 0xc1, 0x30, 0x3e, 0x03, 0x7f, 0x8b, 0xbd,
  0x4b, 0xc6, 0x92, 0x3e, 0xf9, 0x11, 0x7b, 0x3d, 0x59, 0xcd, 0xb5, 0xbd,
  0xae, 0x85, 0x12, 0x3e, 0x36, 0x5b, 0x0c, 0xbd, 0x14, 0x7f, 0xa3, 0xbd,
  0xa3, 0xe0, 0x15, 0xbe, 0x93, 0xa9, 0x0c, 0xbe, 0x4c, 0x19, 0x14, 0x3e,
  0x0c, 0x9f, 0x3b, 0x3d, 0x16, 0xed, 0x6b, 0x3e, 0xef, 0xf8, 0xd1, 0xbe,
  0x71, 0xe1, 0xd6, 0xbd, 0xbd, 0x90, 0x71, 0x3c, 0xe5, 0xe5, 0x47, 0x3e,
  0x06, 0x48, 0x7e, 0x3c, 0xb4, 0x41, 0x46, 0x3e, 0x20, 0x4c, 0x4a, 0x3d,
  0xc8, 0x71, 0x8b, 0xbd, 0x3e, 0xd8, 0x3e, 0x3d, 0x1e, 0xee, 0x78, 0xbd,
  0x68, 0x06, 0x25, 0xbe, 0x47, 0xe6, 0xa1, 0xbd, 0x55, 0x1d, 0x98, 0xbe,
  0x3f, 0xb8, 0x28, 0x3e, 0xd1, 0xeb, 0x26, 0x3e, 0x5f, 0x2d, 0x5b, 0x3e,
  0x6d, 0x79, 0x15, 0xbe, 0xee, 0x5c, 0x2c, 0x3d, 0xd6, 0xd0, 0x89, 0x3e,
  0x2b, 0x5f, 0x03, 0x3e, 0x49, 0xcb, 0x22, 0xbd, 0x52, 0x3a, 0x5a, 0x3e,
  0x19, 0x5f, 0xfe, 0xbc, 0x46, 0x72, 0xa0, 0x3d, 0x5f, 0x8b, 0x17, 0x3e,
  0x4b, 0x3a, 0xf7, 0x3a, 0xbe, 0x91, 0x91, 0x3e, 0x95, 0xff, 0x75, 0xbe,
  0xf0, 0x61, 0x5e, 0xbe, 0xe0, 0x43, 0x0f, 0x3e, 0x97, 0x1f, 0xac, 0x3d,
  0xa9, 0x17, 0xde, 0x3d, 0x8c, 0x13, 0x6c, 0x3d, 0x40, 0x0b, 0x84, 0x3c,
  0x2e, 0x8d, 0x5f, 0xbc, 0x64, 0x70, 0x11, 0xbd, 0x45, 0x20, 0xf5, 0x3d,
  0x81, 0x00, 0x08, 0x3d, 0xbf, 0x28, 0x80, 0x3d, 0x24, 0x24, 0x16, 0x3d,
  0x55, 0x65, 0x89, 0x3d, 0x43, 0x79, 0x3f, 0xbd, 0x0e, 0xda, 0x74, 0xbd,
  0xd2, 0xac, 0xd3, 0xbd, 0xdc, 0xcd, 0x00, 0xbe, 0x3b, 0xc5, 0xc1, 0x3d,
  0x91, 0xac, 0xf3, 0x3d, 0x48, 0xba, 0x46, 0x3e, 0xf0, 0xd4, 0x48, 0xbe,
  0xb7, 0x72, 0x97, 0xbd, 0x91, 0x18, 0x6a, 0x3e, 0xac, 0xd1, 0xab, 0x3d,
  0x16, 0x31, 0xfd, 0x3c, 0x44, 0x35, 0xc1, 0x3d, 0x49, 0xf1, 0x38, 0x3d,
  0x2d, 0x85, 0xde, 0x3d, 0xf9, 0x4b, 0xed, 0x3c, 0x12, 0xac, 0x76, 0xbe,
  0x8c, 0xa7, 0xe6, 0xbd, 0x57, 0x0e, 0xbb, 0xbd, 0x82, 0x32, 0xb6, 0xbe,
  0x55, 0x4d, 0x8f, 0xbd, 0xfe, 0x57, 0x67, 0xbc, 0x85, 0x13, 0xf1, 0xbd,
  0x93, 0x1b, 0xa9, 0x3e, 0x18, 0x25, 0x78, 0x3d, 0xce, 0xf4, 0x81, 0xbe,
  0xfd, 0x0c, 0x50, 0xbe, 0xe6, 0xe2, 0x1a, 0xbe, 0x8c, 0x4f, 0x94, 0xbe,
  0xf1, 0x68, 0x00, 0xbe, 0x07, 0x9a, 0x29, 0x3e, 0x97, 0x5b, 0xec, 0x3d,
  0x30, 0x52, 0x29, 0x3e, 0x19, 0x10, 0x19, 0x3b, 0xe1, 0x4b, 0x8b, 0x3e,
  0xed, 0x04, 0x6d, 0x3e, 0x8f, 0xda, 0x43, 0x3b, 0x23, 0x4d, 0x54, 0x3c,
  0xdb, 0x1b, 0x8c, 0xbe, 0x75, 0x38, 0xd1, 0x3e, 0x73, 0x73, 0x2e, 0x3e,
  0x41, 0xd7, 0x3d, 0xbe, 0x5c, 0x9c, 0x38, 0xbe, 0x9c, 0xd5, 0x41, 0x3c,
  0x26, 0xac, 0x87, 0xbe, 0x49, 0xd8, 0x68, 0xbc, 0x96, 0xa3, 0x62, 0x3d,
  0xe4, 0x1c, 0x8e, 0xbc, 0xce, 0xd5, 0x3d, 0x3e, 0xb7, 0xf1, 0xdc, 0xbc,
  0x36, 0x70, 0xb4, 0x3e, 0x07, 0xbf, 0xb3, 0x3e, 0x07, 0x98, 0x07, 0xbd,
  0xc1, 0x26, 0xab, 0xbc, 0xb7, 0x49, 0x1c, 0xbe, 0xa6, 0x52, 0xb5, 0x3d,
  0x7a, 0xac, 0xa2, 0x3d, 0x32, 0x0b, 0x4e, 0xbe, 0x54, 0x03, 0x23, 0xbe,
  0x34, 0xda, 0x39, 0x39, 0x90, 0x46, 0x21, 0xbe, 0x10, 0x32, 0x18, 0xbd,
  0xa0, 0x48, 0x41, 0xbd, 0x93, 0x7d, 0x2a, 0xbd, 0xc4, 0x39, 0x5b, 0x3e,
  0xe4, 0x94, 0x02, 0x3e, 0x01, 0x86, 0xd5, 0x3e, 0x6e, 0xb3, 0x45, 0x3e,
  0xca, 0xa2, 0x34, 0xbe, 0xf3, 0x6e, 0xdf, 0xbc, 0xab, 0xb9, 0xf9, 0xbd,
  0xf2, 0xa1, 0x65, 0x3e, 0x18, 0x03, 0x07, 0x3e, 0x0d, 0xe4, 0x48, 0xbe,
  0x57, 0x20, 0xfe, 0xbd, 0xbf, 0xef, 0x47, 0xbc, 0xb8, 0x8a, 0xa6, 0xbe,
  0x31, 0xc9, 0xef, 0xbd, 0x42, 0x08, 0x16, 0x3d, 0x46, 0xe9, 0x31, 0xbb,
  0xbe, 0x11, 0xd4, 0x3d, 0x62, 0x4d, 0x0a, 0x3e, 0xc2, 0x58, 0xbd, 0x3e,
  0x34, 0x2a, 0x81, 0x3e, 0x82, 0xb4, 0x12, 0xbe, 0x5e, 0x40, 0x14, 0x3d,
  0x8f, 0xfc, 0x8d, 0xbe, 0x39, 0x30, 0x2f, 0x3e, 0x30, 0xcf, 0x18, 0x3e,
  0x49, 0xc7, 0x76, 0xbe, 0x32, 0x7d, 0x95, 0x3c, 0x16, 0x57, 0x0e, 0xbe,
  0x47, 0x15, 0x51, 0xbe, 0xa7, 0x18, 0x82, 0x3d, 0xe4, 0x28, 0xe6, 0x3d,
  0xff, 0x1b, 0xd0, 0xbd, 0xb2, 0xaa, 0x1a, 0x3e, 0xa7, 0x5c, 0x26, 0x3e,
  0xe8, 0xdb, 0xaf, 0x3e, 0x29, 0x49, 0xd8, 0x3e, 0xef, 0xa0, 0xf0, 0xbd,
  0x57, 0x19, 0x3d, 0x3d, 0xd9, 0xc5, 0x8d, 0xbe, 0x91, 0x8b, 0x84, 0x3d,
  0x48, 0x5a, 0xa4, 0xbc, 0xe6, 0x1a, 0x9c, 0xbd, 0x0b, 0x43, 0x86, 0xbd,
  0xa9, 0x06, 0x59, 0x3d, 0x60, 0xe5, 0x5d, 0xbe, 0xcd, 0x6b, 0xed, 0x3c,
  0x57, 0xad, 0x31, 0x3c, 0xfc, 0xc2, 0x6c, 0x3d, 0x28, 0xee, 0x07, 0x3e,
  0xbf, 0x1e, 0x69, 0xbd, 0xa3, 0xb0, 0x84, 0x3e, 0x69, 0xa4, 0x5c, 0x3e,
  0x0a, 0x6a, 0x41, 0xbe, 0xe7, 0x2b, 0x8e, 0x3d, 0xc1, 0x5e, 0x60, 0xbe,
  0xc4, 0xf0, 0x82, 0x3e, 0x2a, 0xe8, 0x9b, 0xbc, 0xfb, 0x96, 0x79, 0xbc,
  0xff, 0x0a, 0xc3, 0xbd, 0x1e, 0x90, 0x50, 0xbd, 0x2b, 0x89, 0xb5, 0xbe,
  0x6b, 0xde, 0x15, 0x3d, 0x83, 0x6c, 0xfd, 0x3c, 0xe0, 0x8d, 0xb0, 0x3d,
  0x82, 0xdc, 0x56, 0x3d, 0x7f, 0xeb, 0xe3, 0x3d, 0xa1, 0xd1, 0xf4, 0x3e,
  0x94, 0xb4, 0xa6, 0x3e, 0xa9, 0x52, 0xa4, 0xbd, 0xbb, 0x02, 0x46, 0xbd,
  0x33, 0xed, 0x43, 0xbe, 0x72, 0x7c, 0xa6, 0x3e, 0x10, 0x74, 0xc9, 0x3d,
  0xbc, 0x27, 0x01, 0xbe, 0x6e, 0xe8, 0x0a, 0xbe, 0xc6, 0xd3, 0xf5, 0xbd,
  0x96, 0x5a, 0x5b, 0xbe, 0x00, 0x8e, 0xf0, 0xbb, 0x51, 0x2f, 0x63, 0xbc,
  0x84, 0xe0, 0x81, 0xbd, 0x55, 0x1e, 0xb6, 0x3d, 0xe9, 0xed, 0x0a, 0xbb,
  0x85, 0xd1, 0xef, 0x3e, 0x1f, 0x83, 0xca, 0x3e, 0x9c, 0x8c, 0xd8, 0xbc,
  0x6c, 0xc6, 0x5b, 0x3a, 0xcd, 0x08, 0x30, 0xbe, 0xc0, 0xfa, 0x03, 0x3e,
  0xc6, 0xd0, 0x53, 0x3e, 0x84, 0x09, 0x0a, 0xbe, 0x69, 0xc8, 0x36, 0xbe,
  0xa0, 0x5a, 0x9c, 0x3d, 0xae, 0x35, 0xae, 0xbe, 0x06, 0xf3, 0x3a, 0xbd,
  0x52, 0x49, 0xa9, 0xbd, 0x07, 0x63, 0x98, 0x3d, 0x42, 0x87, 0x11, 0x3e,
  0x72, 0x99, 0x56, 0x3d, 0x36, 0xff, 0x8c, 0x3e, 0x13, 0xc2, 0x61, 0x3e,
  0xd2, 0xed, 0x54, 0xbc, 0x56, 0x3d, 0x0e, 0xbe, 0x99, 0x21, 0x76, 0x3e,
  0x0d, 0xb7, 0x11, 0x3e, 0x75, 0x0f, 0x15, 0xbe, 0xe1, 0x5b, 0x56, 0xbc,
  0xd8, 0x16, 0xf7, 0x3d, 0xae, 0xcf, 0x0a, 0x3e, 0xc9, 0x62, 0x4a, 0x3e,
  0xcb, 0x8d, 0x82, 0xbe, 0x41, 0x44, 0xc9, 0x3d, 0x02, 0x30, 0xa0, 0x3e,
  0xd3, 0x5c, 0x90, 0x3d, 0x03, 0x64, 0x2d, 0xbe, 0x35, 0x50, 0x79, 0x3e,
  0xda, 0x43, 0xa7, 0x3c, 0xd4, 0xc1, 0x8d, 0x3e, 0xe6, 0xa0, 0x9e, 0xbc,
  0x03, 0xe5, 0x40, 0x3e, 0xee, 0xd6, 0x86, 0x3e, 0x26, 0x30, 0x20, 0x3e,
  0xcc, 0x69, 0x89, 0x3d, 0x01, 0x5b, 0x85, 0x3d, 0x05, 0xd7, 0xb5, 0x3c,
  0x5d, 0xea, 0x33, 0x3e, 0x1f, 0xf9, 0x32, 0xbd, 0x21, 0xf2, 0x3d, 0x3e,
  0x2b, 0x56, 0x4f, 0x3d, 0x05, 0xff, 0xa7, 0x3d, 0x02, 0x57, 0xd1, 0x3d,
  0x26, 0x57, 0x79, 0x3d, 0xd9, 0x4d, 0x11, 0xbd, 0xa4, 0xa6, 0x93, 0x3e,
  0xb3, 0x29, 0x56, 0xbe, 0xd5, 0xd1, 0x5d, 0x3e, 0x36, 0x34, 0xf3, 0x3e,
  0x3a, 0x0f, 0x0b, 0x3c, 0x4d, 0xfb, 0x96, 0xbc, 0xb8, 0x10, 0x84, 0x3d,
  0x6c, 0xa8, 0x20, 0x3e, 0x6d, 0xde, 0x5f, 0x3e, 0x4c, 0x10, 0x8c, 0xbe,
  0x2a, 0x71, 0x9a, 0x3e, 0x1d, 0xe3, 0x16, 0x3e, 0x92, 0x32, 0x34, 0x3e,
  0x92, 0xc2, 0x49, 0x3e, 0x90, 0x63, 0x8c, 0xbe, 0xe3, 0x02, 0x4d, 0x3d,
  0xaa, 0x52, 0x72, 0x3e, 0x90, 0x12, 0x91, 0xbe, 0x4b, 0x62, 0xfe, 0x3d,
  0x23, 0xb2, 0x62, 0x3e, 0x3c, 0x15, 0xc9, 0xbd, 0x80, 0x07, 0xdd, 0xbc,
  0xbd, 0x33, 0x29, 0x3e, 0x2d, 0x58, 0x40, 0x3e, 0x81, 0x1e, 0x6a, 0x3e,
  0xfe, 0x8f, 0x01, 0xbe, 0x87, 0x23, 0x55, 0x3e, 0x5f, 0x3d, 0xb9, 0x3d,
  0x3b, 0x11, 0x4f, 0x3e, 0x5b, 0xeb, 0x16, 0xbe, 0x39, 0x9e, 0x84, 0x3e,
  0x61, 0x0f, 0x7f, 0x3d, 0xdd, 0x73, 0x68, 0x3e, 0x49, 0xe4, 0x5f, 0xbe,
  0x39, 0x03, 0x84, 0x3e, 0x0e, 0xd3, 0xb1, 0x3d, 0x06, 0x26, 0x0b, 0x3e,
  0x90, 0x8d, 0xb8, 0x3d, 0xed, 0xac, 0x60, 0x3d, 0xa8, 0x0c, 0xed, 0x3d,
  0x9a, 0x14, 0x4f, 0x3e, 0xa5, 0x1e, 0xaa, 0xbd, 0x44, 0x61, 0x8c, 0x3e,
  0xfa, 0xbd, 0x81, 0x3e, 0xac, 0x29, 0x64, 0x3e, 0xe3, 0x0a, 0x1d, 0xbd,
  0x82, 0x70, 0x72, 0x3d, 0xe6, 0x5d, 0xb2, 0x3c, 0x0a, 0xd5, 0x29, 0x3e,
  0x12, 0xfb, 0x3a, 0xbd, 0x5c, 0xdd, 0x14, 0x3e, 0x1d, 0x22, 0x71, 0x3e,
  0xa1, 0xda, 0x62, 0x3e, 0x8a, 0xb2, 0x91, 0xbd, 0x2a, 0x54, 0xf8, 0x3d,
  0xfb, 0x8e, 0x06, 0xbc, 0x6c, 0x17, 0x65, 0x3d, 0x70, 0x37, 0x90, 0xbe,
  0x3a, 0xad, 0x45, 0x3e, 0xcd, 0x83, 0x66, 0x3e, 0xd2, 0xa0, 0x75, 0x3e,
  0x26, 0xb7, 0x2a, 0x3e, 0xf5, 0xa4, 0x5d, 0xbe, 0x03, 0x71, 0xe8, 0xbd,
  0xcc, 0x85, 0x33, 0x3e, 0xb1, 0x57, 0xa0, 0xbe, 0x72, 0x75, 0x5f, 0x3d,
  0xaf, 0xc1, 0x5d, 0x3d, 0xa0, 0x93, 0x18, 0x3d, 0xb1, 0x71, 0x37, 0xbd,
  0x8f, 0xbd, 0xcd, 0xbc, 0x17, 0x0d, 0xfe, 0x3d, 0xfc, 0x5c, 0xc2, 0x3d,
  0xe2, 0xd2, 0x68, 0xbe, 0x39, 0x6e, 0x33, 0x3e, 0xfd, 0x41, 0x9e, 0x3e,
  0x48, 0xef, 0x41, 0x3e, 0xdd, 0x10, 0x60, 0xbe, 0x57, 0x2f, 0x54, 0x3e,
  0xab, 0xc9, 0x0f, 0x3e, 0x7d, 0x1b, 0xd5, 0x3d, 0x55, 0x93, 0xce, 0xbd,
  0xed, 0xf1, 0x36, 0x3d, 0xa8, 0x21, 0x71, 0x3e, 0x2e, 0x61, 0xda, 0x3d,
  0x1e, 0x34, 0x93, 0x39, 0xc1, 0xef, 0xda, 0x3c, 0xd0, 0xde, 0x2d, 0x3b,
  0x93, 0x80, 0x56, 0x3e, 0xde, 0x4b, 0xb6, 0xbd, 0x00, 0x10, 0x58, 0x3e,
  0x25, 0x08, 0xf6, 0x3d, 0x33, 0x05, 0x84, 0x3e, 0x75, 0xd9, 0x89, 0xbd,
  0xde, 0x58, 0x95, 0x3c, 0xcc, 0x13, 0xde, 0x3d, 0xe4, 0x74, 0x53, 0x3e,
  0xf3, 0xca, 0x54, 0xbe, 0xdc, 0x79, 0xac, 0x3e, 0xdf, 0x92, 0x9e, 0x3e,
  0x82, 0x92, 0xac, 0x3a, 0xbc, 0x2e, 0x1e, 0xbe, 0x4e, 0x77, 0x4e, 0x3e,
  0x19, 0x0b, 0x0a, 0x3d, 0x13, 0x52, 0x15, 0x3e, 0x53, 0x40, 0x24, 0xbe,
  0x03, 0xe8, 0x87, 0x3e, 0x96, 0x7f, 0x11, 0x3e, 0x7b, 0x41, 0x49, 0x3e,
  0x97, 0xec, 0xdf, 0x3d, 0x92, 0x55, 0x50, 0xbe, 0x16, 0xf8, 0xe1, 0x3b,
  0x74, 0x65, 0x6c, 0x3e, 0x0f, 0x1d, 0x88, 0x3d, 0xe1, 0x7c, 0x4a, 0xbe,
  0xbd, 0x0a, 0xa8, 0x3e, 0x76, 0x9e, 0x04, 0x3e, 0x01, 0x1e, 0x94, 0xbd,
  0xc5, 0x8a, 0xd3, 0xbd, 0x79, 0x34, 0xb7, 0x3d, 0x07, 0x3a, 0x34, 0xbe,
  0xc9, 0x76, 0x4a, 0x3c, 0x3c, 0xfa, 0xed, 0x3d, 0xc8, 0xe6, 0xa5, 0x3d,
  0x94, 0xe7, 0x51, 0x3e, 0x12, 0xf8, 0x02, 0x3e, 0xa2, 0xaf, 0x8f, 0x3e,
  0x4d, 0x8f, 0x69, 0x3e, 0xbd, 0x8a, 0x3a, 0xba, 0x26, 0x92, 0xec, 0xbc,
  0x2f, 0x67, 0x18, 0xbe, 0xe9, 0xb9, 0x73, 0x3e, 0x5f, 0x86, 0x3d, 0x3e,
  0x20, 0xdc, 0xdf, 0xbd, 0x18, 0x8e, 0x80, 0x3b, 0xd9, 0x43, 0xbf, 0xbc,
  0xa4, 0x71, 0xda, 0xbd, 0x99, 0x5a, 0x47, 0xbb, 0xe2, 0x73, 0xa5, 0x3d,
  0x56, 0x64, 0xbc, 0x3c, 0xd0, 0x9f, 0x87, 0x3d, 0x86, 0x67, 0x0a, 0xbd,
  0xe5, 0x5b, 0x07, 0x3e, 0xb0, 0x0e, 0x8c, 0x3e, 0xbf, 0xf9, 0x39, 0x3c,
  0x3f, 0xbd, 0x10, 0xbd, 0x5d, 0x6e, 0x3e, 0xbe, 0x7a, 0x28, 0xa2, 0x3e,
  0x69, 0x12, 0xa4, 0x3d, 0xda, 0x29, 0x90, 0xbd, 0x70, 0x1d, 0x8f, 0xbc,
  0xfe, 0x34, 0xa0, 0x3d, 0x91, 0x88, 0x5b, 0xbd, 0xb2, 0x71, 0x30, 0xbe,
  0xcf, 0x5b, 0x22, 0x3e, 0xd6, 0x86, 0xa5, 0xbc, 0x50, 0x43, 0x6a, 0x3a,
  0xbd, 0x67, 0x42, 0x3e, 0xee, 0xf7, 0xa0, 0x3e, 0xe2, 0xf9, 0x98, 0x3e,
  0x2d, 0x1f, 0xae, 0x3c, 0xc3, 0x9f, 0x0a, 0xbe, 0x8c, 0xad, 0x81, 0xbd,
  0xd7, 0xf2, 0xa7, 0x3e, 0x9b, 0xd7, 0x33, 0x3e, 0x15, 0x8e, 0xb2, 0xbd,
  0x4b, 0xc9, 0x8b, 0xbc, 0xfe, 0x00, 0xcd, 0x3c, 0xb1, 0xc8, 0x0e, 0xbe,
  0x84, 0xb2, 0x0a, 0xbe, 0x3e, 0xd9, 0xa1, 0x3d, 0xe8, 0x3e, 0x21, 0x3e,
  0x40, 0x39, 0x64, 0x3e, 0xdd, 0x4b, 0x68, 0x3e, 0x0b, 0x21, 0x92, 0x3e,
  0x21, 0x5d, 0x84, 0x3e, 0x47, 0x53, 0x93, 0x3c, 0xc9, 0xf5, 0x8e, 0xbd,
  0xec, 0x95, 0xdc, 0xbd, 0x5f, 0x4a, 0xa4, 0x3e, 0x86, 0xe1, 0x6a, 0x3d,
  0xa1, 0xc4, 0x13, 0xbe, 0xe3, 0x8c, 0xf3, 0xbd, 0xa5, 0xfd, 0x6e, 0x3d,
  0x54, 0x47, 0x71, 0xbe, 0xad, 0xb4, 0xc1, 0x3c, 0x62, 0xb4, 0x63, 0x3d,
  0x74, 0x50, 0x8b, 0xbc, 0xc4, 0xb9, 0x15, 0x3d, 0x5d, 0x5b, 0xd6, 0x3d,
  0xb5, 0xa9, 0x43, 0x3e, 0xb8, 0x14, 0x58, 0x3e, 0xdd, 0x18, 0x1e, 0xbe,
  0x51, 0x96, 0xa4, 0x3d, 0x4b, 0x69, 0x4b, 0xbe, 0xbf, 0xab, 0x89, 0x3e,
  0x9d, 0x93, 0xae, 0x3c, 0xc0, 0xbf, 0x9a, 0xbe, 0xe6, 0x86, 0x01, 0x3d,
  0x1f, 0x7e, 0xf5, 0x3d, 0x7d, 0x42, 0xb6, 0xbd, 0x0e, 0xcc, 0x18, 0xbd,
  0x92, 0x2f, 0x0b, 0x3d, 0x86, 0x51, 0x13, 0xbd, 0xf2, 0x56, 0xec, 0x3d,
  0x14, 0x4c, 0xd0, 0x3d, 0x8f, 0x9d, 0x99, 0x3e, 0x1b, 0x16, 0x6a, 0x3e,
  0x6e, 0x22, 0x67, 0xbe, 0x1d, 0x08, 0xff, 0x3c, 0xfb, 0xe4, 0xa1, 0xbc,
  0x48, 0xb9, 0xa4, 0x3e, 0x79, 0x96, 0xb4, 0x3c, 0xa1, 0xac, 0xe0, 0xbd,
  0x92, 0xb3, 0x85, 0xbc, 0x46, 0xeb, 0x60, 0xbb, 0x96, 0xe7, 0x46, 0xbe,
  0x61, 0x07, 0x22, 0xbe, 0xfe, 0xc7, 0x24, 0x3e, 0x8f, 0xe5, 0x2a, 0x3e,
  0xc2, 0x7a, 0x5a, 0x3e, 0xc2, 0xff, 0x48, 0x3e, 0x8c, 0x05, 0xaa, 0x3e,
  0xe1, 0x82, 0x89, 0x3e, 0x5f, 0xe2, 0xfb, 0xbc, 0x2c, 0x3b, 0xa5, 0xbd,
  0xc6, 0x9f, 0x3f, 0xbe, 0x4d, 0x22, 0xd7, 0x3e, 0x85, 0x13, 0xa8, 0x3d,
  0xd6, 0xb6, 0x7d, 0xbe, 0x39, 0x20, 0xea, 0xbd, 0x88, 0x0a, 0x3b, 0x3d,
  0x5e, 0x8c, 0xec, 0xbd, 0x4d, 0x80, 0xda, 0x3b, 0x97, 0x0a, 0x30, 0x3e,
  0xcd, 0xd5, 0x0e, 0x3e, 0xc6, 0x38, 0x43, 0x3e, 0xe4, 0xbf, 0x46, 0x3e,
  0xe7, 0x5e, 0xa8, 0x3e, 0x73, 0xe6, 0x8d, 0x3e, 0xf8, 0xaf, 0x03, 0xbe,
  0xf2, 0xda, 0xfc, 0xbc, 0x5f, 0xd7, 0x24, 0xbe, 0x89, 0xdb, 0xa2, 0x3e,
  0x2f, 0x5c, 0x2a, 0x3c, 0xc5, 0x6c, 0xed, 0xbd, 0xd4, 0xa3, 0x7b, 0x3d,
  0xd9, 0xe9, 0x50, 0x3c, 0x70, 0xbd, 0xf9, 0xbd, 0xc7, 0xc0, 0x72, 0x3d,
  0x26, 0x93, 0x06, 0x3e, 0xd2, 0xec, 0xda, 0x3d, 0x84, 0xda, 0x62, 0x3d,
  0xae, 0x5a, 0x35, 0x3e, 0x56, 0x7d, 0xdc, 0x3d, 0xf2, 0x62, 0x5d, 0x3e,
  0x94, 0x7a, 0x65, 0xbe, 0xc2, 0xa6, 0x64, 0xbe, 0x3a, 0xa4, 0x81, 0x3e,
  0x9e, 0xf8, 0x43, 0xbe, 0x1a, 0xa6, 0x79, 0xbd, 0xb4, 0xcd, 0x01, 0x3c,
  0x05, 0x3a, 0x5f, 0x3d, 0x0c, 0x2b, 0x12, 0x3d, 0xf2, 0xef, 0x71, 0x3d,
  0x43, 0xa6, 0x10, 0xbe, 0x6d, 0x1c, 0x09, 0x3e, 0x32, 0x9b, 0x6e, 0x3e,
  0x7f, 0x48, 0xe7, 0xbb, 0xed, 0xe7, 0xc4, 0xbd, 0x86, 0xf4, 0x56, 0xbe,
  0x4d, 0x10, 0x08, 0x3e, 0x2a, 0x27, 0x31, 0x3e, 0xe6, 0xd4, 0x96, 0xbe,
  0xe7, 0xa8, 0x3d, 0x3e, 0xa2, 0xaa, 0x53, 0xbe, 0x51, 0xb4, 0x3c, 0x3d,
  0xeb, 0x20, 0x5b, 0x3e, 0x5e, 0x0b, 0xe2, 0xbb, 0x11, 0x9b, 0x3e, 0x3c,
  0x01, 0x69, 0xe6, 0x3d, 0x21, 0xee, 0x7a, 0xbe, 0x41, 0x16, 0x0e, 0xbd,
  0xc1, 0xc2, 0x42, 0x3d, 0x21, 0x99, 0x38, 0x3e, 0xe3, 0x7b, 0xf2, 0x3b,
  0xdd, 0xbf, 0x73, 0xbe, 0x22, 0x2b, 0x43, 0x3e, 0x2f, 0xc3, 0x1e, 0x3e,
  0x2b, 0x25, 0x4e, 0xbe, 0x85, 0x6a, 0x8f, 0x3d, 0x53, 0x4e, 0x54, 0x3e,
  0xd9, 0x8d, 0xff, 0x3c, 0x5a, 0x53, 0x10, 0x3e, 0xbc, 0x93, 0x30, 0xbd,
  0x88, 0x63, 0x74, 0xbd, 0x99, 0x15, 0xb7, 0x3d, 0x6a, 0xac, 0xfd, 0xbd,
  0x27, 0x94, 0x2c, 0x3e, 0x09, 0x36, 0x6e, 0x3e, 0x84, 0x4a, 0x0d, 0x3e,
  0x8f, 0xcc, 0x2b, 0xbd, 0xbb, 0x73, 0x55, 0xbe, 0xb8, 0x3a, 0xe4, 0xbd,
  0x50, 0x44, 0x78, 0x3e, 0xba, 0xdd, 0x97, 0xbe, 0xa9, 0xa8, 0x1a, 0x3e,
  0xc9, 0xb1, 0xb6, 0xbd, 0x03, 0xfb, 0xef, 0xbd, 0xdb, 0x76, 0x23, 0x3e,
  0x46, 0x12, 0xd1, 0x3d, 0x50, 0x8f, 0xef, 0x3d, 0x2a, 0x6d, 0x3c, 0x3e,
  0xfc, 0x27, 0xdd, 0xbd, 0xaa, 0x57, 0x5c, 0x3d, 0x05, 0xa3, 0x76, 0x3d,
  0xff, 0xe2, 0xf5, 0x3d, 0xfd, 0x9e, 0xa7, 0xbd, 0xf0, 0x71, 0x08, 0xbe,
  0x79, 0x63, 0x65, 0x3e, 0x8d, 0xac, 0x17, 0x3e, 0xd5, 0x25, 0x94, 0xbe,
  0x4f, 0x05, 0x9d, 0x3e, 0xdc, 0x38, 0x6d, 0xbe, 0x89, 0xd8, 0xfc, 0xbc,
  0x91, 0x2d, 0x4e, 0x3e, 0x36, 0x1b, 0x96, 0xbd, 0xea, 0x19, 0xf1, 0x3d,
  0x14, 0x8d, 0xcd, 0x3d, 0x47, 0xc6, 0x47, 0xbe, 0x1f, 0xd6, 0x6f, 0x3c,
  0x34, 0x18, 0x7b, 0x3d, 0x7b, 0x7c, 0x28, 0x3d, 0xbe, 0x67, 0x58, 0x3c,
  0xfd, 0x38, 0x85, 0xbd, 0x06, 0xcb, 0x8d, 0xbb, 0xd2, 0xd1, 0x62, 0x3e,
  0xab, 0xdd, 0x58, 0xbe, 0xe7, 0x17, 0xa4, 0x3e, 0x72, 0x5a, 0x62, 0x3d,
  0xdd, 0x27, 0x39, 0xbb, 0x07, 0x8b, 0x98, 0x3e, 0x86, 0x69, 0x72, 0xbd,
  0x7d, 0x21, 0x25, 0xbc, 0x78, 0x11, 0x5c, 0x3e, 0x1c, 0x5a, 0x03, 0xbd,
  0x75, 0x65, 0x7e, 0x3e, 0x3c, 0x81, 0x50, 0x3d, 0xf6, 0x95, 0xef, 0x3d,
  0x0a, 0x50, 0x11, 0x3e, 0x29, 0xc1, 0xec, 0xbd, 0xb4, 0x2f, 0xb0, 0xbd,
  0xff, 0xb9, 0x71, 0x3e, 0xc4, 0x92, 0x69, 0xbd, 0xc2, 0xa3, 0x85, 0x3e,
  0x49, 0xdd, 0x58, 0xbe, 0xe9, 0xb4, 0xf0, 0xbc, 0xac, 0x2f, 0x70, 0x3e,
  0x85, 0x0a, 0x13, 0x3e, 0x45, 0x4b, 0x7f, 0x3c, 0xab, 0xd7, 0xff, 0x3d,
  0x69, 0xd1, 0x09, 0xbe, 0x93, 0xc2, 0x34, 0x3e, 0x57, 0x03, 0x47, 0x3e,
  0x87, 0xa9, 0x3f, 0x3e, 0x00, 0xd7, 0x91, 0xbd, 0x7f, 0xcb, 0x3a, 0xbe,
  0x6c, 0xe7, 0x78, 0x3d, 0x53, 0x11, 0x3f, 0x3d, 0x4a, 0x5f, 0xcc, 0xbd,
  0xec, 0x87, 0x8a, 0x3e, 0xa4, 0x6c, 0x03, 0xbe, 0xee, 0xc2, 0xa9, 0xbc,
  0x6d, 0xe7, 0x83, 0x3e, 0x2d, 0x41, 0xc6, 0xbd, 0x84, 0xca, 0xa3, 0x3d,
  0x48, 0x88, 0x30, 0x3e, 0x75, 0x82, 0x2e, 0xbd, 0x25, 0x85, 0xe7, 0x3d,
  0x25, 0x99, 0x69, 0x3e, 0x37, 0xbb, 0x4b, 0x3e, 0x97, 0xb5, 0x0d, 0xbe,
  0x1d, 0xbb, 0x4b, 0xbd, 0x7d, 0x24, 0xcd, 0x3d, 0x4b, 0x40, 0x1f, 0x3e,
  0xbe, 0x31, 0x55, 0xbd, 0xb8, 0x7f, 0x08, 0x3e, 0xdf, 0xcf, 0x39, 0x3e,
  0x69, 0x76, 0x73, 0x3d, 0x18, 0x3f, 0x7e, 0x3e, 0x22, 0x3c, 0x4f, 0x3d,
  0x92, 0x75, 0x20, 0x3d, 0x65, 0x66, 0x7c, 0x3e, 0xb7, 0x0d, 0x34, 0x3d,
  0xee, 0x10, 0x25, 0x3e, 0x85, 0xaa, 0xf5, 0x3d, 0xc4, 0xa6, 0x3f, 0x3e,
  0x01, 0xc6, 0xe0, 0x3c, 0xe5, 0x95, 0x19, 0xbe, 0xef, 0x0b, 0x0b, 0xbe,
  0x41, 0x7b, 0x09, 0x3e, 0x89, 0x30, 0x11, 0xbe, 0xde, 0x9e, 0x84, 0xbd,
  0x15, 0x19, 0xa7, 0x3e, 0x28, 0xe1, 0x13, 0x3e, 0x34, 0xef, 0x4c, 0xbe,
  0x7f, 0x6f, 0x12, 0x3c, 0x1f, 0x34, 0xcb, 0x3a, 0x3e, 0x39, 0xf0, 0xbb,
  0xfe, 0xa7, 0x2f, 0x3d, 0x96, 0x6e, 0x81, 0x3d, 0x68, 0x0d, 0x69, 0x3d,
  0xc3, 0xd1, 0x6e, 0x3e, 0x8b, 0xd5, 0x39, 0xba, 0x9e, 0x1f, 0x56, 0x3e,
  0x79, 0x2d, 0xdf, 0xbc, 0xfb, 0x92, 0x8d, 0x3d, 0xa4, 0x60, 0xb8, 0xbd,
  0xe2, 0x4c, 0x88, 0xbd, 0x19, 0xc6, 0xd7, 0x3e, 0x7d, 0x8b, 0xe1, 0x3d,
  0x1d, 0x32, 0x0a, 0xbe, 0x4c, 0x98, 0x81, 0xbd, 0x18, 0xac, 0xa8, 0x3d,
  0xe8, 0x00, 0x88, 0x3d, 0x93, 0x62, 0x32, 0xbe, 0x9a, 0xec, 0x22, 0x3d,
  0x83, 0xe6, 0xa5, 0xbd, 0x6d, 0x90, 0x54, 0x3e, 0x5e, 0x47, 0xb1, 0x3d,
  0x91, 0x6e, 0x82, 0x3e, 0x95, 0x45, 0xb8, 0x3d, 0xde, 0x37, 0x26, 0xbd,
  0x4d, 0x34, 0x70, 0x3d, 0xe8, 0x05, 0xf8, 0x3d, 0xac, 0xcd, 0x06, 0x3e,
  0x9f, 0x66, 0x14, 0xbc, 0xc2, 0xf0, 0x5f, 0xbe, 0xca, 0xec, 0x59, 0xbd,
  0xfb, 0x12, 0x7b, 0xbd, 0x25, 0xdc, 0x43, 0xbd, 0x33, 0xe2, 0x65, 0x3c,
  0xeb, 0x84, 0x3e, 0x3c, 0xf0, 0xdf, 0xfd, 0x3d, 0x39, 0x4f, 0x4e, 0x3e,
  0x91, 0xdb, 0x2c, 0x3d, 0xfe, 0x1e, 0x03, 0x3d, 0x73, 0xfc, 0x07, 0x3e,
  0x7e, 0xb8, 0x2e, 0xbd, 0x29, 0x99, 0xa0, 0x3d, 0xf8, 0x20, 0x30, 0xbd,
  0x70, 0xd7, 0xaa, 0x3e, 0xcd, 0x97, 0xba, 0x3d, 0x25, 0x1d, 0xd1, 0xbd,
  0xc5, 0x42, 0x36, 0x3c, 0x07, 0x45, 0x26, 0x3d, 0x27, 0x9d, 0xdd, 0xbd,
  0xe4, 0x35, 0xbf, 0xbd, 0x0c, 0xc4, 0x1e, 0x3e, 0xf6, 0xe1, 0x5b, 0x3d,
  0x34, 0x15, 0x29, 0x3d, 0x4e, 0xb1, 0x60, 0x3e, 0xa7, 0x65, 0x47, 0x3e,
  0xba, 0x37, 0x8a, 0x3d, 0x4f, 0xca, 0xcc, 0xbd, 0xd3, 0x22, 0xa1, 0x3c,
  0x54, 0x49, 0xa4, 0xbd, 0x2b, 0x17, 0xdc, 0x3e, 0x6c, 0x67, 0xb3, 0xba,
  0x13, 0x5e, 0x6b, 0xbe, 0x35, 0x46, 0x6f, 0xbc, 0x99, 0x4f, 0x14, 0x3e,
  0x3e, 0xc0, 0xc2, 0xbd, 0xfb, 0x77, 0x12, 0xbe, 0x01, 0x54, 0x15, 0x3e,
  0x66, 0xd1, 0xe5, 0x3d, 0x95, 0xa7, 0x11, 0x3e, 0x79, 0x3a, 0xa6, 0x3d,
  0xa4, 0x75, 0xe3, 0x3c, 0xa3, 0x53, 0x40, 0x3e, 0x7c, 0xd8, 0x02, 0xbe,
  0xef, 0xc2, 0xf8, 0xbd, 0x99, 0xbf, 0x39, 0xbd, 0xd5, 0xed, 0x22, 0x3e,
  0x0c, 0x40, 0x1e, 0x3e, 0x24, 0x33, 0x64, 0xbe, 0x2c, 0xe7, 0x96, 0xbd,
  0x59, 0x54, 0x05, 0x3e, 0xba, 0x0a, 0xe4, 0xbd, 0xb0, 0x0a, 0x8d, 0xbc,
  0xe5, 0x9b, 0x27, 0x3d, 0x4d, 0x1e, 0x68, 0xbd, 0x8b, 0x9c, 0x51, 0x3d,
  0xfe, 0x09, 0x97, 0x3d, 0xae, 0xbe, 0x0c, 0x3e, 0xf2, 0xb2, 0x58, 0xbc,
  0x7f, 0xfc, 0x48, 0xbd, 0x65, 0xa6, 0x17, 0xbe, 0x91, 0xda, 0x33, 0xbc,
  0xd9, 0x43, 0xa0, 0x3e, 0x22, 0x20, 0xa3, 0x3d, 0x5e, 0x5e, 0x80, 0xbc,
  0x34, 0x21, 0x64, 0x3d, 0x8f, 0xc4, 0xf4, 0xbb, 0x94, 0x4e, 0x5c, 0xbd,
  0x8c, 0x9f, 0x58, 0xbd, 0x0b, 0xf0, 0x0f, 0x3d, 0x4b, 0x6d, 0x00, 0x3e,
  0x3f, 0x29, 0x07, 0x3e, 0xa9, 0x2b, 0x3e, 0x3e, 0x86, 0xf8, 0x5c, 0x3e,
  0xa8, 0xd0, 0xb6, 0x3d, 0x78, 0xcb, 0xd0, 0xbd, 0xc9, 0x7d, 0xe9, 0xbc,
  0x1e, 0x9b, 0x3a, 0xbd, 0xee, 0x60, 0x6c, 0x3e, 0xc9, 0x9e, 0x83, 0xbd,
  0xfa, 0xbc, 0x9d, 0xbd, 0x0f, 0x8e, 0xb2, 0x3d, 0x86, 0xcc, 0xcb, 0x3d,
  0x19, 0xb4, 0x75, 0xbb, 0xc4, 0x35, 0xd3, 0x3c, 0xe6, 0x55, 0x2c, 0x3e,
  0x73, 0x95, 0xfb, 0x3d, 0x4c, 0x1a, 0x35, 0x3e, 0x6d, 0x08, 0x30, 0x3e,
  0xcf, 0x6a, 0x69, 0x3e, 0xe2, 0x51, 0x1d, 0x3e, 0xcd, 0x31, 0xb5, 0x3d,
  0xb5, 0x08, 0xa9, 0xbc, 0xc1, 0x2b, 0xe8, 0x3d, 0x00, 0xee, 0x90, 0x3e,
  0x6d, 0x09, 0xe6, 0x3d, 0xc0, 0x89, 0x43, 0xbd, 0xd4, 0x87, 0xf3, 0x3c,
  0x5e, 0x8e, 0xa6, 0xbd, 0xd6, 0x69, 0xf1, 0xbc, 0x6a, 0xe8, 0x06, 0xbe,
  0x9b, 0x62, 0x2e, 0x3e, 0xcd, 0x31, 0xe7, 0xbb, 0xce, 0x9a, 0xad, 0x3d,
  0x39, 0x2f, 0xa6, 0x3d, 0x35, 0x35, 0x50, 0x3e, 0xa3, 0x8a, 0xfd, 0x3d,
  0x58, 0xd6, 0x14, 0xbe, 0xc8, 0xdc, 0x23, 0xbf, 0x9b, 0xbc, 0x00, 0x3e,
  0xef, 0xee, 0xd6, 0xbe, 0x91, 0x76, 0x09, 0xbf, 0x4a, 0x0c, 0x83, 0xbe,
  0x75, 0xdd, 0xcd, 0xbd, 0xfd, 0xc5, 0x88, 0xbe, 0x8f, 0x11, 0x44, 0xbe,
  0x07, 0x77, 0x99, 0xbe, 0xa6, 0x44, 0x01, 0x3e, 0xcf, 0xda, 0xc6, 0x3d,
  0x98, 0x66, 0x1d, 0x3c, 0xd4, 0x26, 0x64, 0xbf, 0x9b, 0x51, 0x9a, 0xbe,
  0x6a, 0x8c, 0x7f, 0xbd, 0x85, 0xb1, 0x47, 0xbe, 0x8c, 0x6d, 0xdb, 0xbe,
  0x22, 0x71, 0x6d, 0x3e, 0x6d, 0x61, 0x1c, 0xbe, 0xd9, 0x51, 0x8b, 0xbe,
  0x1b, 0xcf, 0x97, 0xbe, 0x60, 0x6d, 0xf0, 0xbc, 0x69, 0xa8, 0x92, 0xbd,
  0x75, 0xb2, 0x53, 0xbe, 0x78, 0x01, 0x61, 0xbe, 0xba, 0xe5, 0x46, 0x3e,
  0x97, 0xf7, 0x23, 0x3e, 0x93, 0x0b, 0x87, 0x3e, 0x2b, 0xff, 0xc0, 0xbe,
  0x46, 0x61, 0x77, 0xbe, 0x29, 0x18, 0x6d, 0x3c, 0x6e, 0x87, 0x17, 0xbe,
  0xa3, 0x1b, 0x3e, 0xbc, 0xda, 0xdf, 0xbb, 0x3e, 0xbc, 0xf7, 0x8b, 0xbe,
  0xbc, 0xc3, 0x34, 0xbe, 0x0d, 0xe5, 0x3e, 0x3e, 0x66, 0xeb, 0x84, 0x3c,
  0x6d, 0xf0, 0x7d, 0xbe, 0x7d, 0xc2, 0x43, 0xbd, 0x80, 0x01, 0x51, 0xbe,
  0x85, 0x5f, 0x8b, 0x3e, 0x16, 0xe6, 0x2b, 0x3e, 0xfd, 0xc7, 0xab, 0x3e,
  0x34, 0x9d, 0x00, 0xbd, 0x7b, 0x52, 0x14, 0x3d, 0x87, 0xd0, 0xa9, 0x3e,
  0x7b, 0x6b, 0xaa, 0xbd, 0x13, 0xda, 0x28, 0xbf, 0x59, 0xe1, 0x48, 0x3e,
  0x46, 0xa1, 0x04, 0xbf, 0x88, 0x90, 0x07, 0xbf, 0x82, 0x91, 0x61, 0xbe,
  0xee, 0x1c, 0xc0, 0x3b, 0x6a, 0xb7, 0xb1, 0xbd, 0x41, 0x77, 0x99, 0x3c,
  0xa6, 0x44, 0xcd, 0xbe, 0x22, 0x3a, 0x5b, 0x3d, 0x9a, 0x5e, 0xdf, 0xbc,
  0x69, 0x92, 0x4a, 0xbc, 0x0b, 0x13, 0x56, 0xbf, 0x74, 0x27, 0x80, 0xbe,
  0x23, 0x94, 0x23, 0xbe, 0x1b, 0x6b, 0x3e, 0xbe, 0x03, 0x27, 0xbb, 0xbe,
  0x4c, 0x20, 0xb1, 0x3e, 0x54, 0x82, 0xee, 0xbd, 0xc8, 0xfb, 0x86, 0xbe,
  0x25, 0x67, 0x8f, 0xbe, 0xa5, 0x22, 0xa1, 0x3c, 0x20, 0x82, 0x84, 0xbe,
  0xe5, 0x14, 0x5a, 0xbe, 0xe0, 0x99, 0x28, 0xbe, 0x74, 0xc8, 0x92, 0x3d,
  0x69, 0x56, 0xa9, 0x3d, 0xc2, 0xd1, 0x89, 0x3e, 0xea, 0x14, 0xab, 0xbe,
  0xd7, 0xa9, 0x51, 0xbe, 0xb8, 0x3e, 0x65, 0xbe, 0xbe, 0xe2, 0xcc, 0xbd,
  0x1a, 0x8f, 0xf0, 0xbd, 0xad, 0x05, 0x98, 0x3e, 0x54, 0x8a, 0x0d, 0xbf,
  0x02, 0xc9, 0x87, 0xbe, 0x11, 0xcb, 0x02, 0x3d, 0x09, 0x95, 0x8c, 0x3d,
  0x8e, 0xb1, 0x4d, 0xbe, 0x33, 0x23, 0x5b, 0xbe, 0xf0, 0xce, 0x08, 0x3d,
  0x02, 0x89, 0x4e, 0x3e, 0x6a, 0xed, 0x04, 0x3e, 0x3a, 0x2c, 0xb1, 0x3e,
  0x12, 0x50, 0x42, 0xbe, 0xc4, 0x5b, 0x4b, 0x3e, 0xed, 0xf7, 0xab, 0x3e,
  0xe4, 0x7a, 0x89, 0x3d, 0x51, 0x86, 0x31, 0xbf, 0x8a, 0xa3, 0x64, 0x39,
  0xdb, 0xf4, 0xc7, 0xbe, 0x1f, 0xe1, 0x0e, 0xbf, 0x23, 0x28, 0x2d, 0xbe,
  0x19, 0xeb, 0x20, 0xbd, 0x0a, 0xd2, 0x86, 0xbe, 0xf6, 0x70, 0x0b, 0xbe,
  0x80, 0xd4, 0x0d, 0xbf, 0xbb, 0x6f, 0x0a, 0x3e, 0xd6, 0x3d, 0x0c, 0x3d,
  0x18, 0x22, 0x18, 0xbe, 0x5d, 0x8a, 0x73, 0xbf, 0x92, 0xf2, 0x8b, 0xbe,
  0xe5, 0x5c, 0x23, 0xbe, 0x76, 0x6e, 0xf3, 0xbd, 0x15, 0xee, 0xac, 0xbe,
  0x93, 0x07, 0x89, 0x3e, 0x28, 0xe4, 0x0a, 0xbe, 0x4e, 0x60, 0x83, 0xbe,
  0xc2, 0xa0, 0x70, 0xbe, 0x2f, 0xa6, 0xea, 0xbd, 0x3f, 0x20, 0x83, 0xbd,
  0x32, 0xb5, 0x18, 0xbe, 0xc4, 0x18, 0xab, 0xbe, 0xa5, 0x4c, 0x73, 0x3e,
  0xc1, 0xdd, 0xf7, 0x3d, 0x1c, 0x73, 0x4d, 0x3e, 0xc4, 0x8c, 0xc0, 0xbe,
  0x58, 0xe8, 0xe0, 0xbd, 0x34, 0x4f, 0x65, 0xbe, 0x0a, 0xc0, 0x0e, 0xbe,
  0x6a, 0xda, 0x5e, 0xbe, 0xfc, 0xba, 0xec, 0x3d, 0xcb, 0x37, 0x00, 0xbf,
  0x54, 0xff, 0xcc, 0xbe, 0x06, 0xfd, 0xb3, 0x3c, 0xf2, 0x3f, 0x00, 0x3c,
  0xbf, 0x67, 0x83, 0xbd, 0x64, 0x74, 0x27, 0xbd, 0x48, 0x6c, 0x19, 0xbd,
  0x46, 0xba, 0xaf, 0x3e, 0x71, 0x21, 0x97, 0x3d, 0xc5, 0x27, 0x62, 0x3e,
  0xa4, 0xe2, 0x89, 0xbe, 0x24, 0x3e, 0x94, 0x3e, 0x45, 0x24, 0x9b, 0x3e,
  0x8c, 0x15, 0xd8, 0xbd, 0x1d, 0x27, 0x14, 0xbe, 0x2b, 0x75, 0xae, 0xbe,
  0xaa, 0x5f, 0x27, 0x3e, 0xd2, 0xd6, 0xf7, 0x3d, 0xa7, 0x06, 0xde, 0xbd,
  0x43, 0xe5, 0x90, 0xbe, 0xb9, 0x20, 0xce, 0xbd, 0x65, 0xa2, 0x85, 0xbe,
  0xb7, 0xc2, 0xf5, 0xbc, 0xab, 0x20, 0x44, 0x3d, 0x5a, 0xe7, 0xe0, 0xbd,
  0x95, 0xe0, 0x30, 0x3e, 0xc3, 0x6d, 0x2d, 0xbd, 0x49, 0xac, 0xc4, 0x3e,
  0x65, 0xe3, 0x6d, 0x3e, 0x15, 0x29, 0x9d, 0xbe, 0x9a, 0x71, 0x1e, 0xbd,
  0x77, 0x10, 0x13, 0xbe, 0x35, 0xef, 0x9a, 0x3e, 0x8d, 0xf8, 0x08, 0x3e,
  0x7f, 0x63, 0xf7, 0xbd, 0x4f, 0x0d, 0x12, 0xbe, 0xf4, 0x11, 0x6d, 0x3b,
  0xcc, 0x66, 0x33, 0xbe, 0x30, 0x8e, 0x81, 0xbd, 0x19, 0x95, 0x31, 0x3c,
  0x5b, 0x65, 0x7d, 0xbd, 0x4d, 0x42, 0x2e, 0x3e, 0x77, 0x92, 0x21, 0x3e,
  0x63, 0xb5, 0xdb, 0x3e, 0xa9, 0x2c, 0xb1, 0x3e, 0xdf, 0x0d, 0x6c, 0xbe,
  0x56, 0x60, 0xdc, 0x3d, 0x81, 0xfd, 0x0d, 0xbe, 0xdd, 0x86, 0x8c, 0x3d,
  0x94, 0xfe, 0xd6, 0x3d, 0xa8, 0xba, 0x17, 0xbe, 0x0e, 0xc3, 0xbc, 0xbd,
  0xdb, 0x7b, 0xc0, 0xbd, 0xf2, 0x25, 0x6a, 0xbe, 0x43, 0x0b, 0x75, 0x3d,
  0x99, 0x92, 0x84, 0xbd, 0x29, 0x02, 0x05, 0xbe, 0xe3, 0x06, 0x29, 0x3e,
  0x51, 0x99, 0x0c, 0x3e, 0xe6, 0x74, 0xe0, 0x3e, 0x19, 0xc8, 0xa9, 0x3e,
  0xeb, 0xdb, 0x32, 0xbe, 0xbf, 0x40, 0xe6, 0x3d, 0xd9, 0x27, 0x9c, 0xbd,
  0x9c, 0x92, 0x9d, 0x3e, 0xca, 0x67, 0x30, 0x3d, 0x5b, 0xc7, 0x3e, 0xbe,
  0x87, 0x91, 0x89, 0xbe, 0x91, 0xef, 0xeb, 0xbd, 0xb4, 0xa3, 0x15, 0xbd,
  0x9d, 0x39, 0xb4, 0x3d, 0x00, 0x9f, 0x88, 0xbd, 0x66, 0x02, 0x3c, 0xbe,
  0x29, 0x20, 0xbc, 0x3d, 0xd1, 0xde, 0xb1, 0x3d, 0x27, 0x1e, 0xaa, 0x3e,
  0xda, 0x38, 0xff, 0x3d, 0x02, 0xd6, 0xdd, 0xbd, 0x8c, 0xa2, 0x3c, 0x3c,
  0xa8, 0xcb, 0x8b, 0xbe, 0xaa, 0xf8, 0xb0, 0x3e, 0xc0, 0x6e, 0xba, 0x3d,
  0x9c, 0x54, 0x23, 0xbd, 0x68, 0x80, 0x51, 0xbe, 0x19, 0x2a, 0x5e, 0x3d,
  0x0c, 0xeb, 0x95, 0xbd, 0xe5, 0xa0, 0x09, 0xbe, 0xd3, 0xe8, 0x7c, 0xbd,
  0x32, 0x51, 0x56, 0xbe, 0xb7, 0xa2, 0x1e, 0x3e, 0xae, 0x3e, 0x0f, 0x3e,
  0x63, 0xe8, 0x70, 0x3e, 0xde, 0x2e, 0x36, 0x3e, 0x72, 0x21, 0x69, 0xbe,
  0x31, 0xa3, 0xcb, 0xbb, 0xe6, 0x7d, 0xd7, 0xbd, 0x2d, 0xb9, 0x57, 0x3e,
  0x28, 0x8f, 0x95, 0x3d, 0x39, 0x43, 0x61, 0xbe, 0x51, 0x61, 0xe3, 0xbd,
  0x53, 0xbf, 0xa2, 0x3d, 0x44, 0x3a, 0x77, 0xbd, 0xec, 0xba, 0x87, 0x3d,
  0x35, 0xea, 0x5f, 0xbd, 0x43, 0x6f, 0xd5, 0xbd, 0x8d, 0xe7, 0x18, 0x3d,
  0xe7, 0x97, 0xa5, 0x3d, 0x38, 0x40, 0xe2, 0x3e, 0xa3, 0x60, 0x52, 0x3e,
  0x42, 0xd0, 0x92, 0xbc, 0x46, 0x96, 0xfe, 0xbc, 0x71, 0xf2, 0x21, 0xbe,
  0xc1, 0x0f, 0xbe, 0x3e, 0x90, 0x79, 0x4f, 0x3e, 0xad, 0xf8, 0x08, 0xbe,
  0xe8, 0xd8, 0x96, 0xbe, 0xfc, 0x90, 0x58, 0xbd, 0x46, 0x27, 0x92, 0xbd,
  0x47, 0x41, 0x38, 0xbd, 0xff, 0xdb, 0x2b, 0x3a, 0x5c, 0xbd, 0x01, 0xbe,
  0xe0, 0xd9, 0x55, 0x3d, 0x90, 0x1e, 0x14, 0x3e, 0x32, 0xc5, 0xac, 0x3e,
  0x81, 0x56, 0x9c, 0x3e, 0x9e, 0x88, 0x80, 0xbe, 0xf8, 0x77, 0x38, 0x3d,
  0x0b, 0x3e, 0x50, 0xbe, 0x02, 0xfb, 0xa7, 0x3e, 0x1c, 0xb2, 0x3d, 0x3e,
  0xc3, 0x7f, 0x9d, 0xbd, 0x26, 0x73, 0x1f, 0xbe, 0x77, 0xfb, 0x16, 0xbd,
  0x35, 0x62, 0xf2, 0xbd, 0xe1, 0x91, 0x2e, 0x3d, 0xb6, 0xea, 0x1f, 0xbd,
  0x61, 0x62, 0xa3, 0xbd, 0x2e, 0x42, 0xc0, 0x3d, 0x62, 0x41, 0x60, 0x3e,
  0x0c, 0x33, 0xd4, 0x3e, 0x76, 0x6b, 0x45, 0x3e, 0xa6, 0xb8, 0x57, 0xbe,
  0xb4, 0xe9, 0xa8, 0xbd, 0xd2, 0x06, 0x7b, 0xbe, 0xd1, 0xc1, 0x25, 0x3e,
  0x5d, 0x10, 0x15, 0x3e, 0xc5, 0x7d, 0xac, 0xbd, 0xfc, 0x41, 0xcd, 0xbd,
  0x3b, 0x5e, 0xc0, 0xbd, 0x6b, 0x57, 0xeb, 0xbd, 0xdb, 0x3c, 0xbe, 0x3c,
  0x14, 0xf3, 0x2d, 0xbe, 0xe8, 0x2b, 0x2e, 0xbd, 0xd8, 0x5e, 0x62, 0x3e,
  0xc7, 0x84, 0xa9, 0x3d, 0x73, 0x30, 0xf7, 0x3e, 0x3d, 0x37, 0xa3, 0x3e,
  0x26, 0x7f, 0xb7, 0xbc, 0x65, 0x3e, 0xed, 0xbe, 0x3d, 0x67, 0x71, 0x3d,
  0x85, 0x2c, 0x76, 0xbe, 0xad, 0x69, 0x03, 0xbe, 0xe5, 0x2c, 0x11, 0xbe,
  0x86, 0x38, 0xaa, 0x3d, 0xe5, 0x26, 0xaa, 0xbd, 0xa1, 0x50, 0xc2, 0x3d,
  0x44, 0x6d, 0xc5, 0xbe, 0xff, 0x74, 0xfc, 0x3d, 0x3d, 0x5b, 0x2a, 0xbc,
  0xc5, 0x17, 0x8f, 0x3d, 0x21, 0x09, 0x08, 0xbf, 0x3c, 0x77, 0xcd, 0xbd,
  0xe2, 0xf4, 0x1b, 0xbe, 0x42, 0x7c, 0x98, 0x3b, 0xe4, 0x36, 0xc0, 0xbe,
  0xbd, 0xfe, 0x7d, 0x3e, 0xb3, 0xc0, 0xcd, 0xbd, 0xc3, 0x4c, 0x7a, 0x3b,
  0x72, 0x40, 0xc1, 0xbc, 0xf8, 0x43, 0xc3, 0xbd, 0xe6, 0x67, 0x43, 0xbd,
  0x28, 0x70, 0x10, 0x3d, 0xc6, 0x30, 0x87, 0xbe, 0x5d, 0x01, 0x05, 0x3e,
  0xcc, 0x46, 0xd9, 0x3d, 0x5d, 0x49, 0x66, 0x3d, 0xe2, 0x1e, 0x22, 0xbe,
  0xd7, 0xc8, 0x58, 0xbe, 0xd3, 0x41, 0xf0, 0x3d, 0x31, 0x8c, 0x06, 0xbe,
  0xe0, 0x41, 0x8c, 0xbe, 0xe3, 0xc2, 0x02, 0x3e, 0x78, 0x24, 0x8f, 0x3d,
  0x1f, 0xb2, 0xe4, 0xbd, 0x45, 0x68, 0x18, 0x3d, 0x86, 0xb3, 0xf5, 0x3c,
  0x9c, 0x3e, 0xcc, 0xbd, 0x3c, 0x7d, 0x43, 0xbc, 0x6e, 0x14, 0x26, 0xbd,
  0x74, 0x62, 0x54, 0x3e, 0xcd, 0x8f, 0xdf, 0x3d, 0xb5, 0xdf, 0x1d, 0x3e,
  0x58, 0x47, 0x28, 0x3d, 0x9a, 0xd5, 0x42, 0xbd, 0x69, 0x7c, 0x7c, 0x3e,
  0xff, 0x05, 0x61, 0x3d, 0xeb, 0xa7, 0xfa, 0xbe, 0x4a, 0x6e, 0x63, 0x3d,
  0xed, 0x07, 0x6d, 0xbe, 0x68, 0x18, 0xaa, 0xbd, 0x33, 0xa4, 0xa7, 0xbd,
  0x32, 0x65, 0x97, 0x3d, 0x9d, 0x3d, 0x18, 0xbe, 0x0c, 0xf2, 0xb9, 0x3d,
  0xba, 0x7a, 0xb9, 0xbe, 0x1e, 0x7a, 0xec, 0x3b, 0x03, 0xdc, 0x4f, 0x3d,
  0xfd, 0xf7, 0x01, 0x3e, 0x3a, 0x1e, 0xbd, 0xbe, 0x97, 0x73, 0x37, 0xbe,
  0xbe, 0x28, 0xf3, 0x3d, 0x96, 0x97, 0x35, 0xbe, 0xc5, 0x7f, 0xba, 0xbe,
  0x54, 0x02, 0x07, 0x3e, 0x47, 0x83, 0xa3, 0xbd, 0xe2, 0x89, 0x9c, 0xbd,
  0x7a, 0x58, 0x7b, 0x3c, 0xba, 0xeb, 0x0a, 0xbe, 0xe0, 0x73, 0x4f, 0xbe,
  0xe4, 0xfd, 0x55, 0x3d, 0x6a, 0xbb, 0x44, 0xbe, 0xf9, 0xeb, 0x81, 0x3d,
  0x71, 0x1d, 0xa3, 0x3d, 0xa7, 0xe5, 0x91, 0x3d, 0x5e, 0xc9, 0x2d, 0xbe,
  0x2c, 0x6e, 0x13, 0xbe, 0xe1, 0x85, 0x58, 0x3e, 0xe8, 0x15, 0x91, 0x3c,
  0xe5, 0x4b, 0x00, 0xbe, 0x23, 0xab, 0x10, 0x3e, 0x80, 0x71, 0x90, 0x3e,
  0x73, 0x4a, 0x38, 0xbe, 0x73, 0x4a, 0xba, 0x3d, 0x79, 0xfc, 0x16, 0xbe,
  0x58, 0xd0, 0x59, 0xbe, 0x7b, 0x93, 0x2e, 0x3e, 0xed, 0x2c, 0x05, 0xbe,
  0x4c, 0x1f, 0xe9, 0x3d, 0xbc, 0x94, 0x1a, 0x3e, 0xf0, 0xc7, 0x3c, 0x3e,
  0x1e, 0x39, 0xae, 0x3c, 0xf1, 0x90, 0x7b, 0x3d, 0x76, 0x88, 0x3b, 0x3e,
  0x25, 0xd0, 0x23, 0x3d, 0x5d, 0xa8, 0x09, 0xbf, 0xe4, 0xfd, 0x64, 0x3e,
  0x50, 0xc5, 0x2f, 0xbe, 0x5c, 0xe6, 0x1b, 0xbe, 0x72, 0x2c, 0xab, 0xbd,
  0xfa, 0x22, 0xaa, 0x3d, 0x2a, 0x92, 0xbc, 0xbd, 0xd8, 0x9b, 0xa5, 0x3d,
  0xd1, 0x1c, 0xae, 0xbe, 0x3d, 0x35, 0xee, 0x3d, 0xb7, 0x5e, 0xbb, 0x3d,
  0xd6, 0x78, 0x8e, 0xba, 0x1a, 0x05, 0xc9, 0xbe, 0x30, 0x23, 0x56, 0xbd,
  0x93, 0xe2, 0x1f, 0xbd, 0x29, 0xef, 0xf9, 0xbd, 0x6b, 0xb5, 0x4e, 0xbe,
  0x14, 0xe0, 0x5e, 0x3e, 0x62, 0x18, 0x11, 0xbe, 0x68, 0x63, 0x09, 0xbe,
  0x4e, 0x2e, 0x38, 0xbe, 0xbc, 0x24, 0x6b, 0x3d, 0xec, 0x9f, 0xbb, 0x3b,
  0xa3, 0x0c, 0x35, 0x3e, 0x5a, 0xfb, 0xd2, 0xbd, 0x4b, 0x23, 0xd4, 0x3d,
  0xa1, 0xa8, 0xd6, 0x3d, 0x06, 0x23, 0x81, 0x3e, 0xe8, 0x30, 0x43, 0xbc,
  0x01, 0x21, 0x34, 0x3e, 0xa0, 0x98, 0x0e, 0xbd, 0x28, 0xfe, 0x5b, 0x3c,
  0xe9, 0x0a, 0x3c, 0x3c, 0xb8, 0xc9, 0x82, 0x3d, 0xf0, 0xc1, 0x76, 0x3c,
  0x3f, 0xc2, 0xab, 0xb9, 0x22, 0xc2, 0x3c, 0x3d, 0x1b, 0xcb, 0x6a, 0x3d,
  0x15, 0x62, 0x9d, 0xbd, 0xc6, 0xb1, 0x28, 0x3e, 0xac, 0x9c, 0xcb, 0x3d,
  0x81, 0x12, 0x20, 0x3e, 0xa2, 0x62, 0xfa, 0x3d, 0x5d, 0x9f, 0x42, 0x3e,
  0xb4, 0x92, 0x0b, 0x3e, 0xf0, 0x9d, 0xf1, 0x3d, 0x3e, 0x1f, 0x5c, 0x3e,
  0x9b, 0x86, 0xd9, 0x3d, 0x3d, 0xae, 0xd0, 0x3d, 0x11, 0x60, 0xc6, 0xbd,
  0x11, 0xda, 0x05, 0xbd, 0xd1, 0xd6, 0xf7, 0x3d, 0xe2, 0x90, 0x54, 0xbd,
  0x39, 0x55, 0xa7, 0xba, 0xd5, 0x74, 0x58, 0xbd, 0xc1, 0x3e, 0xb7, 0x3c,
  0xf7, 0x24, 0xe8, 0x3d, 0x37, 0x31, 0xdc, 0xbb, 0x86, 0x59, 0x0a, 0x3d,
  0x5d, 0xc8, 0x18, 0xbe, 0x2f, 0x55, 0xec, 0x3b, 0xb5, 0x7e, 0xa6, 0x3d,
  0x18, 0x44, 0x1e, 0xbd, 0x17, 0xd3, 0x64, 0xbd, 0x80, 0xe0, 0xf7, 0x3d,
  0xcb, 0x63, 0xb3, 0xbd, 0x30, 0xae, 0x94, 0xbd, 0x02, 0x46, 0xa5, 0xbd,
  0x62, 0x1a, 0x25, 0x3e, 0x40, 0x6a, 0x1d, 0x3e, 0x6d, 0xcf, 0x10, 0x3d,
  0x3c, 0x9a, 0xe2, 0xbd, 0x32, 0x62, 0x9a, 0x3d, 0x38, 0x34, 0xd7, 0x3d,
  0x40, 0xaa, 0x54, 0x3d, 0x68, 0x42, 0x72, 0xbd, 0x6e, 0x9a, 0x42, 0x3d,
  0xe0, 0x5d, 0xe0, 0x3d, 0xe8, 0xa0, 0x8e, 0xbd, 0xe3, 0x93, 0xa8, 0xbd,
  0x29, 0x52, 0x7b, 0x3d, 0x03, 0xfc, 0x8f, 0x3d, 0x32, 0x58, 0xab, 0xbd,
  0x3e, 0x78, 0x1f, 0x3d, 0x63, 0x57, 0x7c, 0x3d, 0xc9, 0x42, 0x25, 0x3e,
  0xff, 0x94, 0x1b, 0xbd, 0x88, 0x97, 0x1b, 0xbe, 0x42, 0xcc, 0xda, 0x3d,
  0xb6, 0x59, 0x11, 0xbe, 0x26, 0xfb, 0x70, 0xbd, 0xa8, 0x5b, 0x52, 0x3d,
  0xc4, 0x69, 0xc9, 0xba, 0x95, 0x1f, 0x22, 0x3c, 0xff, 0x12, 0xa5, 0x3d,
  0x22, 0xf3, 0x30, 0x3d, 0x2e, 0x68, 0x6f, 0xbd, 0xbd, 0x22, 0xe1, 0xbd,
  0x0a, 0xaa, 0xe4, 0xbd, 0x9e, 0x24, 0xd2, 0x3d, 0xb6, 0x91, 0xc4, 0x3c,
  0x46, 0xae, 0x98, 0x3d, 0x9c, 0xe0, 0x8f, 0x3d, 0x20, 0xd6, 0xd4, 0xbb,
  0x09, 0xc9, 0x86, 0x3d, 0xc1, 0xc2, 0xaf, 0xbc, 0x27, 0x90, 0x67, 0x3d,
  0xf4, 0xf5, 0x82, 0x39, 0x2f, 0x80, 0x63, 0x3d, 0x88, 0xa7, 0x0d, 0xbd,
  0xc4, 0xf4, 0xad, 0x3d, 0x29, 0xbc, 0xdb, 0xbd, 0xed, 0x00, 0xec, 0x3d,
  0xc8, 0x50, 0x2b, 0xbc, 0x98, 0x01, 0xcf, 0xbd, 0x56, 0x92, 0x8d, 0xbd,
  0x47, 0xce, 0xec, 0x3d, 0x60, 0x61, 0x3b, 0xbd, 0xf9, 0x23, 0xd3, 0xbd,
  0x44, 0x14, 0xeb, 0xbc, 0x79, 0x6f, 0xc2, 0x3d, 0xca, 0x58, 0x09, 0x3d,
  0x32, 0x8a, 0xa0, 0xbb, 0x38, 0x7f, 0xc5, 0xbd, 0x6f, 0xc4, 0x9d, 0xbd,
  0xb7, 0x19, 0x9b, 0xbd, 0xff, 0xa6, 0x9d, 0xbd, 0x6e, 0xef, 0x51, 0x3d,
  0x08, 0x2f, 0xfa, 0x3b, 0x70, 0xe1, 0x89, 0xbd, 0xe5, 0xf1, 0xa1, 0x3c,
  0x74, 0xfe, 0x85, 0xbd, 0x8b, 0x95, 0x8c, 0x3d, 0x7a, 0xfa, 0x7b, 0x3d,
  0x62, 0x8c, 0xac, 0xbc, 0x30, 0x59, 0xe9, 0xbd, 0xdd, 0xda, 0x86, 0x3d,
  0x6f, 0x9c, 0xfb, 0x3c, 0x5c, 0x5f, 0xb2, 0x3d, 0xfc, 0x78, 0x00, 0x3d,
  0x54, 0x1d, 0x8d, 0x3d, 0x48, 0xce, 0xee, 0xbd, 0xa7, 0x0f, 0xd8, 0x3c,
  0x85, 0x2c, 0xe3, 0x3c, 0xdd, 0x42, 0x3f, 0x3c, 0x6c, 0x10, 0x08, 0xbe,
  0xcd, 0x9f, 0x3e, 0xbd, 0x83, 0x55, 0x99, 0x3d, 0xe1, 0x4f, 0x0b, 0x3e,
  0x98, 0xe6, 0xbe, 0x3d, 0x14, 0x43, 0x8c, 0xbd, 0x41, 0xe6, 0xdc, 0x3c,
  0xa8, 0xac, 0x01, 0x3e, 0x00, 0x28, 0xc5, 0x3d, 0xed, 0x54, 0x25, 0x3e,
  0x01, 0xa6, 0xbf, 0x3b, 0xed, 0xb8, 0x45, 0xbd, 0x2e, 0x49, 0x9d, 0xbd,
  0x2b, 0x4c, 0x2b, 0xbd, 0xf7, 0xb0, 0x6d, 0xbb, 0xb4, 0x74, 0x88, 0x3d,
  0x34, 0xd7, 0xbe, 0x3d, 0x5e, 0x32, 0x65, 0xbe, 0x9b, 0xde, 0xb5, 0xbc,
  0x51, 0x56, 0x37, 0x3e, 0x4d, 0xee, 0x8f, 0x3d, 0xac, 0xd3, 0x0b, 0x3c,
  0x35, 0xb4, 0xd7, 0xbd, 0x73, 0xf7, 0x8e, 0xbd, 0x64, 0x94, 0x6b, 0xbd,
  0x16, 0x85, 0x15, 0x3e, 0xaf, 0xc5, 0xfd, 0xbd, 0xb0, 0x6f, 0x8d, 0x3d,
  0x9c, 0xaf, 0x6d, 0xbc, 0xd2, 0xc3, 0xa4, 0xbd, 0x7d, 0x2d, 0x9a, 0x3d,
  0x95, 0xbb, 0x0f, 0x3e, 0x13, 0x69, 0xe9, 0x3c, 0x3e, 0xea, 0xa4, 0xbd,
  0x0a, 0xaa, 0xe1, 0xbd, 0xa1, 0x58, 0xb7, 0x3d, 0x09, 0x62, 0xb2, 0x3c,
  0xa2, 0xf9, 0x0c, 0xbe, 0xa1, 0xda, 0xb7, 0xbd, 0x10, 0x08, 0x8d, 0xbd,
  0xa9, 0xcd, 0x37, 0xbc, 0x34, 0x97, 0xe9, 0x3d, 0x78, 0xfd, 0x9f, 0xbd,
  0xfc, 0x36, 0x83, 0x3c, 0x1d, 0x0d, 0xa9, 0xbd, 0xa9, 0x22, 0xd3, 0xbc,
  0x90, 0x86, 0xc8, 0x3c, 0x82, 0xa9, 0xad, 0x3d, 0x4b, 0xab, 0x7d, 0xbc,
  0xce, 0x2e, 0xd4, 0x3e, 0xcd, 0xf3, 0x09, 0x3e, 0x15, 0x8b, 0x55, 0xbe,
  0xc3, 0x3e, 0xe2, 0xbd, 0xb1, 0xb3, 0x15, 0x3e, 0x8a, 0xc4, 0xda, 0xbd,
  0x1c, 0xb5, 0x90, 0xbd, 0x65, 0x6e, 0x1b, 0x3e, 0x6e, 0x38, 0xa2, 0xbc,
  0x4b, 0xd1, 0x4f, 0x3e, 0x14, 0x76, 0x84, 0x3c, 0x0d, 0x66, 0x81, 0x3e,
  0x08, 0xf8, 0x0b, 0x3e, 0x66, 0x2d, 0x0c, 0xbe, 0x08, 0x77, 0xcd, 0x3c,
  0x06, 0xb9, 0x23, 0xbe, 0xae, 0x32, 0xce, 0x3e, 0xc9, 0xdb, 0x11, 0x3e,
  0xf4, 0x9c, 0xe4, 0xbd, 0x88, 0xb6, 0xf6, 0x3c, 0xfc, 0xc3, 0x44, 0x3d,
  0xb3, 0x35, 0x4f, 0xbd, 0x14, 0xec, 0x97, 0xbd, 0x78, 0x38, 0x1a, 0x3e,
  0x5b, 0x36, 0xc2, 0x3d, 0x02, 0x29, 0x62, 0x3e, 0xa3, 0x5a, 0xd3, 0x3d,
  0x7e, 0x3c, 0x71, 0x3e, 0xa2, 0xfd, 0xf3, 0x3d, 0x4d, 0x25, 0xb0, 0xbd,
  0xc2, 0x78, 0xe3, 0x3d, 0xaf, 0xf7, 0x51, 0xbe, 0x97, 0xc2, 0xf1, 0x3d,
  0x19, 0xe1, 0x09, 0x3e, 0x61, 0x22, 0xfc, 0x3b, 0x2d, 0xa3, 0xc6, 0xbc,
  0xe5, 0xa5, 0xa5, 0x3d, 0x1a, 0xa3, 0x03, 0xbe, 0xe5, 0xa6, 0xc8, 0x3d,
  0x7a, 0xa4, 0xa0, 0xbc, 0x4b, 0x3c, 0x5c, 0x3d, 0xca, 0x0a, 0xc9, 0x3d,
  0xc9, 0x4e, 0x26, 0x3c, 0xe9, 0xf7, 0xd6, 0x3e, 0xdc, 0x3a, 0x5f, 0x3e,
  0xf7, 0xe6, 0x64, 0xbd, 0x92, 0xac, 0x0d, 0x3e, 0x36, 0x4d, 0x19, 0xbe,
  0x29, 0x72, 0xc7, 0x3e, 0xd5, 0x97, 0x2b, 0x3e, 0xeb, 0x92, 0x65, 0xbc,
  0xc3, 0xe9, 0xce, 0x3d, 0xc2, 0x04, 0x32, 0x3d, 0x29, 0x12, 0x25, 0xbe,
  0x0d, 0xc4, 0xef, 0xbd, 0xa3, 0xc5, 0x3f, 0x3d, 0x8e, 0x3b, 0xaf, 0x3d,
  0xb2, 0xc5, 0x24, 0x3e, 0xa2, 0x11, 0xf7, 0x3c, 0x4c, 0xd0, 0xb5, 0x3e,
  0x69, 0xe4, 0x8d, 0x3e, 0x7d, 0xf4, 0x26, 0xbe, 0xe9, 0xd6, 0x02, 0x3d,
  0x9d, 0xbe, 0x0c, 0xbe, 0x5f, 0xaf, 0xe5, 0x3e, 0xc8, 0x8b, 0xf7, 0x3d,
  0x93, 0xd9, 0x2c, 0xbd, 0xe1, 0x56, 0x2d, 0xbb, 0x89, 0x06, 0x61, 0x3d,
  0x4b, 0x3e, 0x59, 0xbe, 0xe4, 0xa0, 0xa9, 0x3d, 0x75, 0x84, 0x83, 0xbd,
  0x5c, 0xc0, 0x5a, 0x3d, 0x78, 0x7e, 0x12, 0x3e, 0x47, 0x38, 0xff, 0x3d,
  0x7a, 0xc4, 0xbc, 0x3e, 0x3d, 0x15, 0xb7, 0x3e, 0x1a, 0xcc, 0x0f, 0xbe,
  0x73, 0x7f, 0x9e, 0x3d, 0x44, 0x1c, 0x36, 0xbe, 0x71, 0x66, 0xa4, 0x3e,
  0x46, 0xd7, 0x1b, 0x3e, 0x99, 0x6f, 0x40, 0xbe, 0x48, 0x23, 0x6e, 0xbd,
  0x50, 0x1b, 0xe5, 0x3d, 0x35, 0x96, 0x8a, 0xbb, 0x2d, 0x70, 0xc7, 0x3d,
  0xfb, 0x99, 0xa9, 0x3d, 0x2a, 0xb0, 0x6c, 0xbd, 0xb3, 0x7c, 0xb7, 0x3d,
  0xe7, 0x41, 0xea, 0x3c, 0x63, 0x33, 0x81, 0x3e, 0x2e, 0x12, 0x9d, 0x3e,
  0xf6, 0x6a, 0xa4, 0x3c, 0x88, 0x1f, 0x53, 0x3a, 0xcf, 0x45, 0x84, 0xbd,
  0xda, 0xc0, 0xed, 0x3e, 0x49, 0xc2, 0x11, 0xbc, 0x6c, 0x51, 0xb3, 0xbc,
  0xee, 0x8a, 0xf1, 0x3d, 0x26, 0x4e, 0xb9, 0x3d, 0x93, 0x4b, 0x48, 0xbe,
  0xa3, 0xcb, 0x3d, 0xbd, 0x63, 0x12, 0x63, 0xbd, 0xf7, 0x4a, 0x75, 0x3d,
  0x94, 0x98, 0x2c, 0x3e, 0xd9, 0xea, 0xb8, 0x3d, 0x9d, 0xdf, 0x96, 0x3e,
  0x0c, 0x23, 0xa8, 0x3e, 0x0f, 0x6e, 0x3f, 0x3d, 0x43, 0x37, 0x83, 0x3d,
  0xec, 0xfd, 0x1a, 0xbd, 0xa9, 0x56, 0xe2, 0x3e, 0x15, 0xd2, 0xf6, 0x3c,
  0xf1, 0xed, 0x35, 0xbd, 0x6c, 0x04, 0x5b, 0x3d, 0x50, 0xde, 0x8c, 0x3d,
  0x95, 0x07, 0x40, 0xbe, 0x1c, 0x6d, 0xe9, 0x3d, 0xa7, 0x83, 0x10, 0xbd,
  0x65, 0xf7, 0x84, 0xbd, 0xfd, 0x7b, 0x66, 0x3e, 0xf2, 0x67, 0xed, 0x3d,
  0x6d, 0xd6, 0xaf, 0x3e, 0xc3, 0xc1, 0xa8, 0x3e, 0x55, 0x6b, 0x78, 0x39,
  0xf1, 0x24, 0xe5, 0x3d, 0xa4, 0xd5, 0x40, 0xbd, 0xd0, 0x48, 0x8e, 0x3e,
  0x79, 0x06, 0xcd, 0x3d, 0x5c, 0x64, 0xfc, 0xbd, 0x29, 0xd0, 0x8a, 0xbc,
  0x00, 0x1d, 0xa2, 0x3c, 0x9c, 0xc7, 0x12, 0xbe, 0x32, 0x2c, 0x50, 0x3d,
  0x01, 0x7b, 0x06, 0x3e, 0x76, 0x93, 0xa9, 0xbd, 0x09, 0x09, 0x5c, 0x3e,
  0x07, 0x29, 0x28, 0x3e, 0xdd, 0x5c, 0x82, 0x3e, 0xa0, 0x38, 0x9b, 0x3e,
  0xd9, 0x68, 0x77, 0xbd, 0x2a, 0x9a, 0xe5, 0xbe, 0x7a, 0x81, 0x5d, 0x3e,
  0xd3, 0x6e, 0xa1, 0xbe, 0x28, 0x18, 0x8e, 0xbe, 0x55, 0xe7, 0x30, 0xbd,
  0x64, 0x99, 0x01, 0x3c, 0x85, 0xf0, 0x90, 0xbe, 0x47, 0x1c, 0x48, 0x3c,
  0xbf, 0xc3, 0x98, 0xbe, 0xd5, 0x6b, 0x1b, 0xbe, 0xb8, 0x97, 0xfb, 0x38,
  0xfa, 0x11, 0x31, 0xbe, 0xf0, 0xe0, 0x30, 0xbf, 0x6d, 0x95, 0x60, 0xbe,
  0xf5, 0xdf, 0x25, 0xbe, 0x16, 0xe0, 0x97, 0xbe, 0xfb, 0x13, 0x4a, 0xbe,
  0x3f, 0x7d, 0x48, 0x3e, 0xf7, 0x49, 0xce, 0xbe, 0xa3, 0x7f, 0xcc, 0xbd,
  0xe0, 0xd8, 0xc0, 0x3d, 0xf9, 0x4a, 0x46, 0xbd, 0xdc, 0xbb, 0xf1, 0xbc,
  0xce, 0xb3, 0xd9, 0xbc, 0x7d, 0x64, 0x09, 0xbe, 0x4a, 0x81, 0xed, 0x3d,
  0x82, 0x5c, 0x6b, 0xbd, 0xd4, 0x0c, 0x23, 0x3e, 0x55, 0xf5, 0x9e, 0xbe,
  0xd0, 0xb7, 0x8c, 0xbe, 0x54, 0xca, 0xa7, 0xbd, 0x56, 0x1d, 0xd0, 0xbd,
  0x67, 0x9e, 0x84, 0xbe, 0x63, 0xce, 0xd7, 0x3e, 0xef, 0xaa, 0x1c, 0x3d,
  0x37, 0x7a, 0x1c, 0xbe, 0x4b, 0x1d, 0x90, 0x3e, 0xa2, 0xc7, 0x26, 0xbe,
  0x3a, 0x20, 0x9d, 0xbd, 0x58, 0x69, 0xd3, 0xbd, 0x78, 0xc5, 0xa9, 0xbe,
  0xb2, 0xbf, 0x92, 0x3e, 0x27, 0x44, 0xc6, 0xbb, 0x89, 0x0e, 0x8b, 0x3e,
  0xc6, 0x69, 0x2f, 0xbd, 0x7e, 0xef, 0x85, 0xbe, 0x0c, 0x37, 0x12, 0xbe,
  0x3d, 0x02, 0x33, 0x3c, 0xe8, 0x6d, 0xc9, 0xbe, 0x04, 0x34, 0x7f, 0x3e,
  0x60, 0x74, 0xc1, 0xbe, 0x4a, 0x5d, 0xa7, 0xbe, 0x54, 0xe3, 0xb5, 0xbd,
  0x7c, 0xba, 0x1b, 0xbe, 0x13, 0xc1, 0x8a, 0xbd, 0x68, 0xeb, 0xee, 0x3c,
  0xea, 0xc5, 0x9a, 0xbe, 0x55, 0x33, 0x9c, 0x3c, 0xc5, 0xdc, 0x07, 0xbc,
  0xad, 0xd0, 0x74, 0xbd, 0x77, 0xf9, 0x04, 0xbf, 0x7a, 0x12, 0xcd, 0xbe,
  0xbc, 0x92, 0x96, 0xbc, 0x2d, 0xdb, 0x65, 0xbe, 0xb0, 0xff, 0x81, 0xbe,
  0x2e, 0x20, 0x54, 0x3e, 0x02, 0xab, 0x33, 0xbe, 0x10, 0xf0, 0xab, 0xbd,
  0xb5, 0x33, 0x35, 0x3d, 0x77, 0x8b, 0x42, 0x3d, 0x00, 0x55, 0x71, 0xbe,
  0x5f, 0xd9, 0xbc, 0x3d, 0x58, 0x64, 0x96, 0xbe, 0x29, 0x89, 0x01, 0x3e,
  0xe8, 0x41, 0xab, 0x3d, 0xd6, 0x94, 0x17, 0x3e, 0x91, 0x14, 0x8a, 0xbd,
  0x7d, 0xc4, 0x41, 0xbe, 0x4b, 0x45, 0x52, 0xbe, 0x06, 0xe4, 0x5d, 0x3d,
  0x08, 0x7b, 0xa0, 0xbe, 0x99, 0x83, 0xb5, 0x3e, 0x6d, 0x19, 0x93, 0x3d,
  0x45, 0xc7, 0x43, 0xbd, 0x01, 0xbb, 0x81, 0x3e, 0x42, 0xfd, 0x21, 0x3d,
  0xda, 0x0f, 0x36, 0xbe, 0xa5, 0x5a, 0x15, 0x3e, 0x59, 0x1a, 0x78, 0xbe,
  0x9e, 0xb0, 0x86, 0x3e, 0xb1, 0xcf, 0x09, 0x3d, 0x83, 0x1f, 0x8e, 0x3e,
  0x31, 0xe2, 0xcc, 0xbd, 0x8c, 0xe4, 0x97, 0xbe, 0x20, 0xeb, 0x81, 0xbd,
  0x29, 0x3b, 0x1d, 0x3e, 0x97, 0xff, 0xf0, 0xbe, 0x4e, 0xba, 0x82, 0x3d,
  0x4c, 0x2a, 0xc0, 0xbe, 0x2d, 0xd1, 0x48, 0xbe, 0x05, 0xa5, 0xa7, 0xba,
  0x7b, 0x7a, 0xd1, 0xbc, 0x73, 0x94, 0x34, 0xbd, 0x8d, 0x20, 0xba, 0x3d,
  0xde, 0xa1, 0x7b, 0xbe, 0xd6, 0xb1, 0x7e, 0x3c, 0x73, 0x05, 0xf8, 0xbd,
  0x0b, 0x72, 0xdf, 0xbd, 0xfc, 0x6a, 0x06, 0xbf, 0xb7, 0x5c, 0xa7, 0xbe,
  0xb0, 0xb0, 0x6c, 0xbc, 0xfa, 0xf6, 0x91, 0xbe, 0xaa, 0x31, 0x84, 0xbe,
  0x3c, 0x7d, 0x6e, 0x3e, 0x92, 0xfe, 0x06, 0xbe, 0xce, 0x8a, 0x10, 0x3d,
  0xdd, 0xd3, 0x66, 0x39, 0x7e, 0xbc, 0x94, 0xbd, 0xdf, 0xa5, 0xeb, 0xbd,
  0xf1, 0x40, 0x16, 0x3e, 0x29, 0x23, 0x96, 0xbe, 0x42, 0x8d, 0x90, 0x3d,
  0xe9, 0x7b, 0x9e, 0x3d, 0x15, 0x35, 0x93, 0x3e, 0xcf, 0x3c, 0x27, 0xbe,
  0x4f, 0x2d, 0xb0, 0xbe, 0xd1, 0x11, 0xff, 0xbd, 0x2f, 0x97, 0x79, 0xbd,
  0xc3, 0x10, 0x6d, 0xbe, 0x18, 0x12, 0x3b, 0x3e, 0x07, 0x4c, 0x83, 0x3e,
  0x61, 0xe1, 0x06, 0xbe, 0xba, 0x2d, 0x63, 0x3e, 0xe3, 0x3d, 0xd9, 0xbd,
  0xb3, 0xb8, 0x55, 0xbe, 0xb1, 0x32, 0x8a, 0x3d, 0xd4, 0xdc, 0x81, 0xbe,
  0x3f, 0xda, 0x74, 0x3e, 0x11, 0x89, 0x13, 0x3e, 0x88, 0xdc, 0x8b, 0x3e,
  0xfe, 0xf6, 0x0d, 0x3e, 0x52, 0xa4, 0x16, 0xbe, 0x92, 0xb0, 0xba, 0xbd,
  0xc3, 0x76, 0x88, 0xbd, 0x80, 0xbe, 0xc9, 0xbd, 0x47, 0x60, 0xd2, 0xbd,
  0x5f, 0x2f, 0xb9, 0x3e, 0x95, 0x7b, 0x81, 0x3c, 0x9c, 0x67, 0xd4, 0xbd,
  0x36, 0x3e, 0x2a, 0xbe, 0x49, 0xb7, 0xff, 0xbd, 0xbd, 0x34, 0xb2, 0xbd,
  0x6b, 0x54, 0x07, 0x3d, 0x0d, 0x06, 0xd6, 0xbd, 0xb4, 0x2f, 0x23, 0xbe,
  0x41, 0x61, 0x14, 0x3e, 0x58, 0xfd, 0xfa, 0x3d, 0xdb, 0x49, 0x11, 0x3e,
  0xe0, 0xc4, 0x84, 0x3d, 0x63, 0xf4, 0xa6, 0xbe, 0x0b, 0x38, 0x07, 0x3c,
  0x25, 0x7a, 0xb2, 0xbd, 0x95, 0x95, 0xca, 0x3e, 0x10, 0xa5, 0x85, 0xbc,
  0x24, 0x26, 0x4b, 0xbe, 0x28, 0x0a, 0x33, 0xbe, 0x16, 0x2d, 0xcc, 0xbd,
  0xf8, 0x20, 0x22, 0xbe, 0x25, 0x54, 0x5c, 0xbd, 0xb0, 0x65, 0x49, 0x3c,
  0x61, 0x8a, 0x64, 0xbe, 0xa7, 0xe6, 0xcf, 0x3d, 0x6e, 0x77, 0xf5, 0x3d,
  0x3a, 0x9f, 0xd3, 0x3d, 0x6d, 0x78, 0xe7, 0x3d, 0x94, 0x2b, 0x1c, 0xbe,
  0x1b, 0xc0, 0x93, 0x3d, 0xa8, 0x02, 0x95, 0xbd, 0xd7, 0x5a, 0x8a, 0x3e,
  0xaf, 0xe3, 0xa6, 0x3d, 0x3d, 0x29, 0x42, 0xbe, 0xe6, 0x24, 0x45, 0xbe,
  0x7c, 0xe6, 0x2a, 0xbd, 0x84, 0x6f, 0x62, 0xbe, 0xf9, 0x30, 0x96, 0xbd,
  0xa1, 0x0e, 0x2e, 0xbc, 0x39, 0x1b, 0x39, 0xbe, 0x10, 0x75, 0x8d, 0x3d,
  0x7a, 0x9c, 0x99, 0x3d, 0x90, 0xc5, 0x9f, 0x3e, 0xf3, 0x4d, 0x58, 0x3e,
  0x91, 0xc1, 0xca, 0xbd, 0xbd, 0x06, 0x60, 0xbd, 0x9c, 0x5b, 0x82, 0xbe,
  0x76, 0x88, 0xb3, 0x3e, 0x9c, 0x39, 0x12, 0x3e, 0xf3, 0xef, 0x8d, 0xbe,
  0x5f, 0x38, 0x9d, 0xbe, 0x53, 0xad, 0x71, 0xbe, 0xd7, 0x55, 0x9a, 0xbe,
  0xa5, 0x1c, 0x90, 0xbd, 0xe5, 0x42, 0x11, 0xbe, 0xe2, 0x21, 0x28, 0xbe,
  0x21, 0x19, 0x0c, 0x3e, 0xc9, 0x93, 0x09, 0x3e, 0x64, 0x81, 0x21, 0x3e,
  0x31, 0x5b, 0xdf, 0x3d, 0x8f, 0x42, 0xbd, 0xbe, 0x84, 0x1b, 0xa4, 0x3d,
  0xd7, 0xc8, 0x36, 0xbc, 0xe7, 0x28, 0x79, 0x3e, 0x10, 0x5d, 0x8e, 0x3d,
  0x4e, 0x0d, 0x42, 0xbe, 0x50, 0x93, 0x5a, 0xbd, 0xf9, 0xde, 0xb6, 0xbc,
  0xa1, 0xf4, 0xcf, 0xbd, 0xf8, 0xf1, 0x54, 0xbd, 0xe3, 0xf3, 0x8b, 0x3d,
  0x7d, 0x4c, 0x86, 0xbe, 0xd5, 0x0a, 0x65, 0x3e, 0x21, 0xe6, 0xde, 0x3d,
  0xb4, 0x2b, 0x95, 0x3d, 0x8c, 0xcd, 0x13, 0x3e, 0x95, 0xe5, 0x09, 0xbe,
  0xae, 0xa4, 0x21, 0x3d, 0xaa, 0x95, 0x29, 0xbd, 0xfd, 0x28, 0x85, 0x3e,
  0xc2, 0x85, 0x01, 0x3e, 0xeb, 0x37, 0x4b, 0xbe, 0xa7, 0xec, 0x7c, 0xbd,
  0x1d, 0x52, 0x06, 0xbe, 0x5d, 0xb2, 0x51, 0xbe, 0x7e, 0x68, 0x84, 0x3d,
  0xf5, 0x60, 0x2f, 0xbc, 0x8d, 0x7c, 0x87, 0xbb, 0x9d, 0xe9, 0x10, 0x3e,
  0x69, 0x55, 0x6c, 0x3e, 0x34, 0xb7, 0x63, 0x3e, 0xbc, 0x0c, 0xa3, 0x3d,
  0xe0, 0x40, 0xf8, 0xbd, 0xc8, 0xe2, 0xc7, 0xba, 0xf5, 0x8c, 0xdd, 0xbc,
  0x6b, 0x84, 0xba, 0x3e, 0xed, 0x72, 0x82, 0xbd, 0x35, 0xce, 0x67, 0xbe,
  0x40, 0xbe, 0x02, 0xbe, 0x36, 0x94, 0x2e, 0xbd, 0x84, 0xa1, 0xc0, 0xbe,
  0x77, 0x9f, 0x31, 0xbe, 0x9f, 0x83, 0x67, 0xbb, 0xba, 0x61, 0xae, 0xbe,
  0xa0, 0xbb, 0x63, 0x3e, 0x8f, 0x30, 0x8d, 0x3b, 0xc7, 0xe7, 0x26, 0x3e,
  0xe3, 0xf4, 0x63, 0xbc, 0x31, 0x03, 0x79, 0xbe, 0xb3, 0xe5, 0xbc, 0x3d,
  0x32, 0x9d, 0x05, 0xbe, 0x11, 0x39, 0xe6, 0x3e, 0xb0, 0xac, 0xfe, 0x3d,
  0x42, 0xa7, 0x64, 0xbe, 0xfd, 0xc7, 0x91, 0xbe, 0x16, 0x4c, 0x67, 0xbd,
  0x24, 0x41, 0x85, 0xbe, 0x1f, 0x74, 0x1a, 0xbd, 0x9a, 0xb0, 0x9a, 0xba,
  0x9b, 0x2a, 0x17, 0xbe, 0x00, 0xd3, 0x60, 0x3e, 0xba, 0x4c, 0x42, 0x3e,
  0xea, 0x66, 0x7a, 0x3e, 0x85, 0x98, 0x14, 0x3e, 0x78, 0x65, 0x93, 0xbe,
  0xe5, 0xc8, 0x28, 0x3d, 0x3e, 0x67, 0x04, 0xbe, 0x2c, 0x6f, 0x8a, 0x3e,
  0x20, 0x9f, 0x44, 0x3d, 0xc1, 0x72, 0x07, 0xbe, 0xd2, 0xe0, 0x9b, 0xbd,
  0x9e, 0x91, 0x52, 0xbd, 0x59, 0xa4, 0xee, 0xbd, 0xa3, 0x14, 0xe3, 0x3d,
  0x94, 0x32, 0x28, 0x3d, 0x4b, 0xa2, 0x6c, 0xbd, 0x34, 0xca, 0xf0, 0x3d,
  0x9d, 0x51, 0xc6, 0x3d, 0x09, 0x20, 0x8b, 0x3e, 0x51, 0x2c, 0x4d, 0x3d,
  0xf8, 0x4d, 0x55, 0xbe, 0xb3, 0x45, 0xd1, 0xbe, 0x6c, 0x4a, 0xd8, 0x3d,
  0x0e, 0x05, 0xc8, 0xbe, 0x47, 0xc4, 0x1d, 0xbf, 0x6d, 0x94, 0xc2, 0xbe,
  0x79, 0xaa, 0x4d, 0xbb, 0x06, 0xa2, 0x8e, 0xbe, 0xf3, 0x03, 0xed, 0xbd,
  0x00, 0x29, 0x98, 0xbe, 0xc3, 0xaa, 0x18, 0x3e, 0xc2, 0xe8, 0xfc, 0x3d,
  0xa9, 0xeb, 0x0e, 0xbc, 0xe6, 0x90, 0x56, 0xbf, 0xc7, 0x64, 0xc8, 0xbe,
  0x20, 0x37, 0x0f, 0x3a, 0x0d, 0x6c, 0xa6, 0xbd, 0x14, 0xb8, 0x9d, 0xbe,
  0xee, 0x04, 0x86, 0x3e, 0x0e, 0xe7, 0x84, 0x3d, 0xf2, 0x84, 0xd4, 0xbe,
  0x5b, 0x78, 0xaa, 0xbe, 0x25, 0x1c, 0xa9, 0x3d, 0x15, 0x22, 0x9b, 0xbd,
  0x43, 0x63, 0x15, 0xbe, 0xab, 0xfc, 0x53, 0xbe, 0x71, 0x0a, 0xe3, 0x3d,
  0x60, 0x8d, 0x65, 0x3e, 0x1e, 0xa5, 0x68, 0x3e, 0x4f, 0x72, 0x9f, 0xbe,
  0x3e, 0x9d, 0xd4, 0xbd, 0x82, 0x53, 0xe2, 0x3d, 0x8e, 0x24, 0xde, 0xbd,
  0x00, 0x20, 0x72, 0xbd, 0x9f, 0x10, 0xa0, 0x3e, 0xe5, 0x4e, 0x0c, 0xbf,
  0xf8, 0x98, 0xdd, 0xbe, 0xa1, 0x68, 0x04, 0xbe, 0x97, 0x49, 0x8a, 0x3d,
  0x9a, 0xa0, 0xfd, 0xbd, 0x1c, 0xc8, 0x02, 0x3d, 0xd2, 0xef, 0x63, 0x3c,
  0x99, 0xad, 0xde, 0x3e, 0xc6, 0x02, 0x03, 0x3e, 0x63, 0x74, 0x11, 0x3e,
  0xaa, 0x5f, 0x6c, 0xbe, 0xa7, 0x0e, 0x18, 0x3d, 0xc1, 0x19, 0xc8, 0x3e,
  0x26, 0xb8, 0xd2, 0x3d, 0x14, 0x1a, 0x10, 0xbf, 0x9c, 0xaa, 0x88, 0x3d,
  0x23, 0xc9, 0x19, 0xbf, 0xcf, 0xd7, 0x28, 0xbf, 0xc9, 0x8a, 0xd1, 0xbe,
  0xef, 0x19, 0xd6, 0x3d, 0xfc, 0x83, 0x3f, 0xbd, 0x9b, 0xf3, 0x2a, 0xbd,
  0x88, 0x9b, 0xc0, 0xbe, 0xa3, 0x37, 0x01, 0x3e, 0xf1, 0x1f, 0xa8, 0x3d,
  0x4c, 0x40, 0xbd, 0xbd, 0xa8, 0xdf, 0x58, 0xbf, 0xa0, 0x0c, 0x7a, 0xbe,
  0x0b, 0xa3, 0x3a, 0xbd, 0x3c, 0xed, 0x3a, 0xbe, 0x94, 0x57, 0xb1, 0xbe,
  0xfd, 0x26, 0x15, 0x3e, 0xc6, 0xc2, 0x80, 0xbc, 0x84, 0xb2, 0xf8, 0xbe,
  0xba, 0x6e, 0xe8, 0xbe, 0x66, 0x82, 0x55, 0xbd, 0x5b, 0x34, 0x67, 0xbe,
  0xc9, 0x0e, 0x88, 0xbe, 0x18, 0x8f, 0x72, 0xbe, 0x01, 0x64, 0x53, 0x3e,
  0x0a, 0x71, 0xd6, 0x3d, 0x3f, 0x0d, 0xa0, 0x3e, 0x14, 0xf9, 0x02, 0xbf,
  0x79, 0x0f, 0x5c, 0xbd, 0x0b, 0xf3, 0x17, 0x3e, 0x0c, 0x07, 0x66, 0xbe,
  0x28, 0xb0, 0xa1, 0x3d, 0xec, 0x47, 0x9a, 0x3e, 0x74, 0x9b, 0x85, 0xbf,
  0x67, 0xca, 0xdb, 0xbe, 0x97, 0xa0, 0xa0, 0xbb, 0x94, 0x83, 0xb9, 0x3d,
  0x7f, 0xec, 0x2b, 0xbe, 0x30, 0x6b, 0x32, 0xbd, 0xda, 0x32, 0x17, 0x3e,
  0x59, 0x27, 0xc2, 0x3e, 0x8e, 0x1b, 0x93, 0x3e, 0x8b, 0x14, 0x1c, 0x3e,
  0x95, 0xb8, 0x98, 0xbe, 0xb3, 0x90, 0x6e, 0x3e, 0xd2, 0x9d, 0x7f, 0x3e,
  0x8d, 0xe0, 0xb3, 0xbd, 0xfc, 0x82, 0x3a, 0xbf, 0x08, 0x25, 0x54, 0xbd,
  0x77, 0xd5, 0x13, 0xbf, 0xa3, 0x21, 0x09, 0xbf, 0x35, 0xe3, 0x15, 0xbf,
  0x58, 0xe4, 0x53, 0xbd, 0x5e, 0xf0, 0x01, 0xbe, 0x97, 0xc1, 0x1f, 0xbe,
  0x85, 0x2e, 0x17, 0xbf, 0x0f, 0x47, 0x4c, 0x3d, 0x49, 0x0a, 0x47, 0xbd,
  0xda, 0x6c, 0xaf, 0x39, 0xbb, 0xcc, 0x37, 0xbf, 0xe5, 0x5a, 0x78, 0xbd,
  0xe9, 0x39, 0xa4, 0xbd, 0x46, 0x62, 0x63, 0xbd, 0x30, 0x19, 0x83, 0xbe,
  0xe0, 0x34, 0x33, 0x3e, 0x9a, 0xd6, 0x76, 0xbe, 0x9b, 0x7f, 0xdb, 0xbe,
  0x70, 0xb8, 0x97, 0xbe, 0x86, 0x72, 0xb0, 0x3c, 0xbb, 0x69, 0xe4, 0xbd,
  0x86, 0xa5, 0x8c, 0xbe, 0x6f, 0xc6, 0xde, 0xbd, 0x8e, 0x01, 0xc7, 0x3d,
  0x73, 0x7b, 0xb9, 0xbb, 0xe5, 0xe0, 0x29, 0x3e, 0xa9, 0x05, 0x0a, 0xbf,
  0xc0, 0x97, 0x72, 0x3e, 0xc5, 0xe1, 0x32, 0x3d, 0x3b, 0x2a, 0x23, 0xbe,
  0x78, 0xab, 0xaf, 0x3d, 0x9b, 0x26, 0x3b, 0x3e, 0x61, 0xad, 0x89, 0xbf,
  0xe5, 0x73, 0x1e, 0xbf, 0x08, 0x56, 0x5b, 0xbd, 0xb3, 0x7f, 0xbe, 0x3d,
  0x2b, 0x74, 0x15, 0xbe, 0x6d, 0x92, 0x8a, 0xbe, 0xba, 0x72, 0x31, 0x3e,
  0x78, 0xa9, 0xf0, 0x3d, 0x0a, 0x67, 0xcb, 0x3d, 0x20, 0x98, 0xc0, 0x3c,
  0xda, 0xbd, 0xb2, 0xbe, 0x82, 0x10, 0x88, 0x3e, 0x00, 0x21, 0xf4, 0x3e,
  0xa3, 0x1f, 0x52, 0xbd, 0x0d, 0xa8, 0x92, 0x3e, 0xd4, 0x94, 0x42, 0x3e,
  0x16, 0x65, 0x95, 0xbe, 0xb5, 0x23, 0xaa, 0x3d, 0x35, 0x02, 0x95, 0x3e,
  0xd2, 0xe9, 0x8f, 0x3d, 0x70, 0x54, 0xeb, 0x3d, 0xb3, 0x5e, 0xc9, 0x3e,
  0x17, 0xad, 0x82, 0x3e, 0x6b, 0x7e, 0xd4, 0xbd, 0xf3, 0x6b, 0xc8, 0xbd,
  0x66, 0xe7, 0x95, 0xbe, 0x1c, 0xcf, 0xe0, 0x3d, 0xdd, 0x16, 0x91, 0xbe,
  0x1c, 0xde, 0x75, 0xbe, 0x76, 0xfc, 0x9f, 0x3e, 0x1a, 0x26, 0x50, 0x3e,
  0xd6, 0xe7, 0x2b, 0x3e, 0x39, 0x69, 0x0d, 0xbd, 0xe6, 0x9b, 0xc1, 0x3d,
  0x6d, 0xa2, 0xb6, 0x3e, 0xb9, 0x89, 0x5c, 0x3e, 0x8c, 0xd4, 0x39, 0x3e,
  0xab, 0xfe, 0xc8, 0x3e, 0xbf, 0x55, 0x5e, 0x3e, 0x37, 0xa8, 0x0f, 0xbe,
  0x5b, 0x3e, 0xd3, 0xbd, 0xd9, 0xb8, 0x8b, 0xbd, 0x4d, 0xbe, 0x2c, 0x3e,
  0x2d, 0x8c, 0x90, 0xbd, 0xb9, 0xbc, 0x97, 0xbe, 0x22, 0x97, 0x73, 0x3e,
  0xff, 0x18, 0x4b, 0x3e, 0x7a, 0x1d, 0x8f, 0x3e, 0x5d, 0xb3, 0xaf, 0xbd,
  0xf7, 0x43, 0x20, 0x3e, 0x86, 0xa0, 0x3e, 0x3e, 0xd6, 0x12, 0x8c, 0x3e,
  0xd8, 0xc6, 0x13, 0x3e, 0x1f, 0x12, 0x50, 0x3e, 0x97, 0x91, 0x3f, 0x3e,
  0x9e, 0xb9, 0x5e, 0xbd, 0x9f, 0x77, 0x97, 0x3d, 0xa2, 0x96, 0x71, 0xbe,
  0x8d, 0xd1, 0x8c, 0x3d, 0x10, 0x96, 0x9f, 0xbd, 0xb6, 0x2d, 0x91, 0xbe,
  0xb5, 0x25, 0x59, 0x3d, 0x5d, 0xbe, 0x7c, 0x3e, 0xad, 0x82, 0xa0, 0x3e,
  0xde, 0xa7, 0x90, 0xbe, 0x98, 0xca, 0xb2, 0x3d, 0x04, 0x7d, 0x5a, 0x3e,
  0x73, 0xa9, 0xa2, 0x3e, 0xb4, 0x86, 0x81, 0x3e, 0x73, 0x6b, 0xa6, 0x3e,
  0x58, 0x15, 0x82, 0x3e, 0xc5, 0xed, 0x0a, 0xbe, 0x9c, 0x9c, 0x2c, 0xbd,
  0x9e, 0x21, 0xb0, 0xbe, 0x04, 0x20, 0x96, 0xbd, 0xd7, 0xed, 0x02, 0xbe,
  0xb2, 0x7f, 0x46, 0xbe, 0x07, 0xb5, 0x7a, 0x3e, 0xc4, 0x69, 0x6c, 0x3e,
  0x1b, 0x50, 0x3e, 0x3e, 0xe1, 0x0f, 0xeb, 0xbd, 0x9d, 0xad, 0xd2, 0x3d,
  0x09, 0x9b, 0x28, 0x3e, 0x36, 0x2a, 0x95, 0x3e, 0xa4, 0x6d, 0xd7, 0x3c,
  0xb8, 0xe1, 0xb3, 0x3e, 0x07, 0x38, 0x45, 0x3e, 0x74, 0xf3, 0x75, 0xbe,
  0x22, 0x7f, 0xf9, 0xbc, 0x40, 0x6d, 0x9a, 0xbe, 0x6a, 0x79, 0xf0, 0x3d,
  0x18, 0x4f, 0x4a, 0xbe, 0x57, 0x1c, 0xa3, 0xbe, 0x34, 0x89, 0x83, 0x3e,
  0x99, 0x3e, 0x9e, 0x3e, 0xce, 0x9b, 0x99, 0x3e, 0x72, 0x42, 0xd1, 0xbd,
  0xf1, 0xe0, 0xe9, 0x3d, 0xa2, 0x27, 0xad, 0x3e, 0x4b, 0x73, 0x1c, 0x3e,
  0x27, 0x40, 0x00, 0x3d, 0x0f, 0xf4, 0xc0, 0x3e, 0x0f, 0x98, 0x98, 0x3e,
  0x94, 0xbb, 0x41, 0xbe, 0x92, 0x72, 0x3e, 0xbd, 0xc5, 0xd5, 0x89, 0xbe,
  0xea, 0xa7, 0x4e, 0xbd, 0xda, 0x7e, 0xe0, 0x38, 0xf6, 0xf4, 0x2d, 0xbe,
  0x2e, 0x86, 0x6d, 0x3d, 0x9a, 0x3d, 0x86, 0x3e, 0xc0, 0x4d, 0x47, 0x3e,
  0x69, 0x43, 0x99, 0xbe, 0x84, 0x59, 0xba, 0x3b, 0x6c, 0x17, 0xb0, 0x3e,
  0xc0, 0x7e, 0x3f, 0x3e, 0xe8, 0x4e, 0xf7, 0x3d, 0x03, 0xde, 0x1a, 0x3e,
  0x05, 0x5a, 0x0e, 0x3e, 0x61, 0x6c, 0x7e, 0xbe, 0x33, 0xff, 0x1b, 0xbe,
  0x37, 0x59, 0x13, 0xbe, 0xe9, 0xa0, 0x8f, 0xbd, 0x18, 0x22, 0x8d, 0xbe,
  0x11, 0x25, 0x70, 0xbe, 0xd4, 0x03, 0xa3, 0x3e, 0xc0, 0x1f, 0x47, 0x3e,
  0x91, 0xde, 0x81, 0x3e, 0x17, 0x7d, 0x18, 0xbe, 0xdf, 0x25, 0x21, 0xbc,
  0x54, 0x8e, 0xa1, 0x3e, 0xe1, 0x3c, 0x0a, 0x3e, 0x34, 0xc0, 0xba, 0x3d,
  0x30, 0xfd, 0xa8, 0x3e, 0x4a, 0x0f, 0xe8, 0x3d, 0x4a, 0x88, 0x47, 0xbe,
  0x52, 0xcd, 0xaf, 0x3c, 0xa8, 0x81, 0xc1, 0xbe, 0x86, 0xc8, 0x16, 0x3d,
  0x8f, 0x02, 0x77, 0xbe, 0x3f, 0xbc, 0xaa, 0xbe, 0x0f, 0xe7, 0xde, 0x3d,
  0x3d, 0x7a, 0xee, 0x3d, 0x2d, 0x69, 0x5b, 0x3e, 0x01, 0x8c, 0x71, 0xbe,
  0x51, 0x48, 0x9a, 0x3d, 0x77, 0x0c, 0x88, 0x3e, 0x22, 0x7b, 0x9f, 0x3e,
  0x53, 0xf4, 0x13, 0x3e, 0x01, 0x08, 0xf2, 0x3d, 0x17, 0x40, 0x96, 0x3e,
  0x06, 0xd1, 0xbd, 0xbe, 0x8a, 0x7d, 0x96, 0xbd, 0xb2, 0x47, 0x9a, 0xbe,
  0x37, 0xc1, 0x12, 0xbd, 0xb0, 0x19, 0xd2, 0xbd, 0x1d, 0xf7, 0x8b, 0xbe,
  0x73, 0x20, 0x36, 0x3e, 0x90, 0x15, 0xf6, 0xbe, 0x45, 0x02, 0x3c, 0xbd,
  0x28, 0x9b, 0x6d, 0xbe, 0x92, 0x62, 0x1f, 0xbf, 0x1a, 0x85, 0xfe, 0xbe,
  0x44, 0x73, 0xdf, 0x3d, 0x0a, 0x6d, 0xd3, 0xbd, 0x7d, 0xa4, 0x59, 0xbe,
  0xbd, 0xd9, 0xce, 0xbe, 0x32, 0x7f, 0xc4, 0x3d, 0x87, 0x65, 0x85, 0x3d,
  0x77, 0x39, 0x61, 0x3c, 0x60, 0xa7, 0x3b, 0xbf, 0xaa, 0x6b, 0xac, 0xbe,
  0xef, 0x73, 0xb8, 0xbd, 0x87, 0xf9, 0x6a, 0xbe, 0xe1, 0x43, 0xcd, 0x3c,
  0x7c, 0x95, 0x3c, 0x3e, 0xe2, 0x0a, 0xce, 0x3e, 0x87, 0x9e, 0x98, 0xbe,
  0x6e, 0x1e, 0x6c, 0xbe, 0x54, 0x50, 0xb9, 0x3d, 0xb6, 0x3a, 0x5c, 0xbe,
  0xc5, 0x95, 0xe9, 0xbd, 0x3c, 0x51, 0x92, 0xb9, 0xfe, 0x89, 0xb8, 0x3e,
  0x88, 0x15, 0x7e, 0x3e, 0xcb, 0xf7, 0x91, 0x3e, 0x08, 0xee, 0xef, 0xbe,
  0x2e, 0xfd, 0x68, 0x3e, 0x94, 0xb4, 0xca, 0x3e, 0x52, 0xda, 0x03, 0xbe,
  0xd1, 0xed, 0x92, 0x3d, 0x62, 0xee, 0x86, 0x3e, 0xd7, 0x0a, 0x67, 0xbf,
  0x00, 0xb3, 0xff, 0xbe, 0x32, 0xed, 0x3c, 0xbe, 0x56, 0xee, 0x85, 0x3d,
  0x3f, 0xe1, 0x76, 0xbd, 0x62, 0x27, 0x71, 0xba, 0x24, 0x46, 0x0f, 0x3e,
  0x62, 0x76, 0xe4, 0x3e, 0xcc, 0x6a, 0xa6, 0x3e, 0x46, 0xc3, 0x0b, 0x3d,
  0xd1, 0xbe, 0x52, 0xbe, 0x0b, 0xb0, 0x31, 0x3e, 0x60, 0x44, 0x6c, 0x3e,
  0x05, 0x35, 0xe9, 0xbd, 0x12, 0x3f, 0x10, 0xbf, 0x37, 0x73, 0x14, 0xbd,
  0x72, 0xcb, 0xd4, 0xbe, 0xda, 0xe5, 0x24, 0xbf, 0x5c, 0x9f, 0x0b, 0xbf,
  0x54, 0xf3, 0xb8, 0x3d, 0x44, 0x09, 0x7c, 0xbe, 0xd2, 0x9d, 0xfa, 0xbd,
  0x97, 0x59, 0xa6, 0xbe, 0xac, 0xe9, 0x12, 0x3e, 0xaa, 0xf4, 0xb8, 0xbc,
  0x59, 0x65, 0xa4, 0x3b, 0x1b, 0xf2, 0x67, 0xbf, 0x3b, 0xd1, 0x7c, 0xbe,
  0xcf, 0x12, 0x7c, 0xbd, 0x5e, 0xd0, 0x04, 0xbe, 0x38, 0xa9, 0xa3, 0xbd,
  0xf1, 0x56, 0x12, 0x3e, 0x5a, 0xe8, 0xa7, 0x3d, 0xd0, 0xab, 0xe0, 0xbe,
  0x3c, 0x5e, 0x60, 0xbe, 0x63, 0x10, 0xa3, 0xbd, 0x0b, 0x1a, 0x6f, 0xbe,
  0xc9, 0xf2, 0xb7, 0xbe, 0x3c, 0x6e, 0xa2, 0xbd, 0x02, 0x5c, 0x50, 0x3e,
  0x4a, 0xa8, 0xa9, 0x3d, 0xab, 0xe8, 0xa9, 0x3d, 0x62, 0xba, 0xc4, 0xbe,
  0xb9, 0x45, 0x86, 0x3e, 0x32, 0x3b, 0x09, 0x3f, 0x45, 0x75, 0x1b, 0xbe,
  0xe8, 0xf6, 0x74, 0x3d, 0x7d, 0x5b, 0x44, 0x3e, 0xc1, 0x5a, 0xa1, 0xbf,
  0x11, 0x98, 0x1e, 0xbf, 0x31, 0xec, 0x78, 0xbd, 0x71, 0x5e, 0xb8, 0x3d,
  0x5c, 0x6b, 0xe4, 0xbd, 0x00, 0x5f, 0x71, 0xbe, 0xdd, 0x9a, 0xc8, 0x3d,
  0xb3, 0x07, 0x35, 0x3e, 0xed, 0x23, 0xf6, 0x3d, 0x0d, 0x66, 0xd4, 0xbb,
  0xc5, 0x17, 0xba, 0xbd, 0xb7, 0xb5, 0xbe, 0x3e, 0x7a, 0x5c, 0x06, 0x3e,
